#version: 0.2
Ġ t
Ġ a
h e
i n
r e
Ġt he
o n
e r
Ġ s
Ġ w
a t
Ġ o
e n
Ġ c
i t
i s
a n
o r
Ġ b
e s
e d
Ġ f
in g
Ġ p
o u
Ġa n
a l
Ġt o
a r
Ġ m
Ġ in
Ġo f
Ġ h
Ġ d
a s
â Ģ
i c
Ġan d
Ġt h
l e
o m
i on
l l
en t
Ġ n
Ġ l
Ġ re
s t
v e
l y
Ġ e
r o
Ġb e
Ġ g
i d
u t
a c
o t
Ġ T
Ġth at
Ġ I
Ġ on
a y
Ġ S
Ġ is
e t
i m
a m
a d
o w
i g
s e
Ġf or
âĢ Ļ
Ġ A
v er
c t
u r
l d
Ġ C
Ġ u
Ġs t
Ġ y
Ġ it
Ġ he
i r
at ion
it h
Ġw h
Ġ M
c e
t er
o l
Ġw e
i l
Ġw ith
Ġa s
Ġ B
c h
i ll
n d
Ġ P
Ġw as
er s
Ġy ou
k e
Ġ âĢ
Ġc on
Ġd e
Ġ r
he r
i f
at e
a g
Ġa t
Ġh a
Ġ W
Ġs e
Ġ H
o re
Ġp ro
u l
p p
m ent
r i
Ġa re
Ġ D
es t
u s
Ġ 1
Ġc om
is t
an d
Ġ R
o p
a in
ĠT he
Ġ 2
ig h
r om
t h
Ġ (
o d
Ġ F
Ġn e
u m
u n
Ġe x
re s
a b
âĢ Ŀ
Ġn ot
Ġ N
Ġ v
es s
it y
Ġha ve
e m
ou ld
Ġo r
or t
Ġb y
o s
Ġ G
an t
i ve
Ġf rom
Ġa l
e l
' s
o c
Ġs u
ar t
Ġ L
Ġs h
n t
Ġth is
q u
igh t
p e
u st
Ġ le
i es
Ġ E
en d
Ġc h
Ġs a
ou t
Ġa b
T he
al l
i e
0 0
ac k
re d
ĠâĢ ľ
al ly
Ġh as
Ġ J
Ġp l
Ġg o
ar d
i v
Ġh is
om e
a p
o st
g h
Ġ O
e ar
Ġt r
ou r
as t
Ġ j
a k
u d
Ġw or
Ġd o
Ġthe y
Ġb ut
r ou
g e
Ġc an
Ġsa id
Ġw ill
Ġw he
Ġ U
Ġ k
ic h
o k
Ġa ll
Ġ "
Ġwh o
id e
Ġin t
am e
an s
t her
i al
Ġo ut
Ġthe ir
f f
on g
ic e
e ct
p l
u re
p t
ag e
on e
Ġm ore
ion s
ac t
i ke
Ġm e
Ġu p
ou s
in e
Ġa d
Ġab out
r a
at ed
b er
Ġwe re
Ġon e
Ġs o
Ġu s
o g
im e
e p
Ġ K
Ġh ad
a re
i a
u b
c c
Ġw ould
Ġ2 0
Ġc l
Ġ im
Ġwh ich
in d
u e
a ke
i z
Ġcon t
Ġa g
ver y
Ġt e
Ġof f
Ġcom p
Ġu n
Ġbe en
ĠS t
s o
Ġ en
p er
ig n
a u
ĠT h
ar y
e w
ac e
i p
Ġy ear
Ġl ike
e re
v en
o ok
Ġin c
ay s
Ġp e
Ġm an
r y
o se
Ġre s
it e
ab le
Ġp er
as s
or d
Ġs p
ĠI n
Ġo ther
i re
m er
Ġs ome
i le
en ce
i b
op le
Ġ20 1
k s
ation s
Ġo ver
ic al
Ġthe re
res s
Ġd is
ul t
in t
Ġne w
ow n
Ġal so
Ġth an
Ġa r
Ġbe c
r u
an ce
Ġthe m
ou nt
ou gh
Ġa pp
p ort
Ġp art
a il
Ġwhe n
Ġyou r
re e
Ġwh at
on d
Ġpe ople
Ġs c
f ter
or m
a v
as e
Ġ qu
ĠC h
Ġan y
Ġj ust
Ġ Y
Ġit s
ac h
Ġt ime
ĠI t
Ġk n
Ġhe r
Ġre c
l ic
en s
re at
Ġm y
Ġg et
Ġ if
Ġ V
Ġ 3
i an
. âĢĿ
Ġint o
Ġwor k
ou nd
ir st
Ġt w
ct ion
Ġn o
ve l
d u
ing s
or y
id ent
it ion
or s
ic k
Ġo ur
o b
Ġ -
Ġp re
an g
o ve
Ġpl ay
w n
in k
am p
au se
t e
ad e
at es
is h
ar k
Ġ ro
Ġs he
Ġp ol
ver s
Ġc o
, âĢĿ
Ġa fter
Ġ1 9
ĠH e
Ġh ow
Ġc ould
Ġf irst
n e
nd er
i ous
Ġh im
Ġa cc
' t
a w
i ld
on s
Ġp o
Ġf e
Ġat t
Ġon ly
ic t
he d
Ġp r
o v
Ġtw o
r it
h ing
Ġcom m
Ġs pe
âĢ ľ
f orm
Ġa ct
w e
er v
Ġb l
f t
Ġbe t
. "
Ġde c
n ing
Ġb ack
Ġm ost
c es
o od
c k
ĠâĢ ĵ
Ġa m
Ġd id
rou gh
o y
if f
at er
rou nd
Ġag ain
u al
Ġd es
is e
d ay
Ġu nder
Ġw ant
Ġ 4
se l
u ll
Ġcon s
Ġn ow
Ġbec ause
ĠâĢ Ķ
l ud
Ġ $
m an
Ġyear s
ent s
ter n
ub lic
Ġe ven
e c
is s
Ġne ed
. .
Ġin v
Ġkn ow
ĠW e
Ġse e
ment s
Ġad d
c ed
t ing
, "
Ġin d
o ld
Ġse c
f ore
u ch
Ġe very
ur n
Ġsu pp
Ġ 5
pe ct
Ġm ake
oc k
ĠU n
Ġthe se
Ġe m
o ll
j ect
Ġwhe re
I n
ation al
x t
ver n
Ġb u
Ġl ook
T h
um p
os s
Ġd on
ĠA nd
Ġe v
at ing
Ġw ay
Ġ [
Ġbe ing
Ġr ight
Ġre m
i ly
n g
le ct
Ġm ay
ro w
Ġthe n
Ġman y
ĠT r
Ġd iff
ie w
Ġc all
Ġre l
Ġde f
on t
as on
ĠB ut
Ġinc lud
l es
i ed
mer ic
ak ing
as ed
Ġth ink
) .
Ġre g
Ġim p
ri b
it ed
Ġth rough
at h
e ll
Ġs y
Ġs ay
Ġp res
Ġf l
Ġsh ould
ur ing
Ġth ose
t y
Ġl ast
ot her
Ġ very
ow er
Ġm uch
it ies
if ic
Ġst ate
ĠTh is
t le
Ġsh ow
he n
at ive
Ġb r
s s
Ġwe ll
ot h
ar g
ĠW h
Ġp h
Ġ2 00
u nd
Ġc ount
Ġo wn
Ġdo es
Ġ end
ic s
ar ly
al s
Ġd own
Ġas s
Ġbe l
Ġu se
ĠA meric
t s
an ge
Ġl ong
ter s
in ce
Ġbe fore
g r
om et
- -
w ard
Ġgo vern
Ġm on
ib le
u es
u p
Ġre port
Ġst art
ĠN ew
Ġ ke
if e
b le
Ġf in
Ġm ade
en er
Ġte am
ol og
) ,
Ġsu ch
i x
re n
ou n
âĢ Ķ
ers on
il ity
Ġwor ld
is m
Ġs m
Ġgo ing
f ul
l p
u ally
e k
c om
ist s
Ġa c
Ġst ud
t ain
Ġgo od
I t
Ġsu b
Ġe ff
or k
it s
Ġagain st
Ġs et
Ġs ur
Ġg u
Ġ ent
Ġpo int
Ġg ame
Ġ 6
ar s
y s
st em
g an
l i
rou p
Ġpro v
Ġst ill
Ġwh ile
ill ion
a x
Ġhe lp
Ġle ad
we en
Ġm in
e f
00 0
al k
c y
m s
im es
Ġo b
Ġs ays
an k
Ġpro du
Ġg r
Ġin ter
Ġs im
Ġst r
Ġin st
sel f
c ess
Ġcon f
Ġc ol
Ġt ake
i o
Ġs ame
u res
Ġth ough
Ġc r
Ġbet ween
us s
Ġoff ic
Ġdiff ere
e ver
oll ow
ut ion
ar ch
l and
Ġdis c
Ġ ed
o ol
Ġo p
a ir
Ġh igh
re ad
Ġl aw
Ġs ign
Ġn um
Ġgovern ment
a h
l ed
n er
g g
w ay
ĠR e
Ġt er
h ip
he s
an y
c ent
at ch
am es
Ġre f
Ġs omet
t ed
Ġtr ans
t en
W e
vel op
Ġin s
Ġr un
Ġs er
Ġm em
iv es
Ġa round
a ve
Ġf ound
Ġth ree
Ġhe re
Ġm ed
at her
ou se
Ġre al
ĠA r
v ed
Ġus ed
Ġex p
o ot
a z
ĠY ou
Ġsy stem
ce pt
c i
Ġre ally
Ġ1 0
v ing
Ġg roup
Ġsupp ort
al e
c on
Ġm od
c er
Ġc our
et s
. [
Ġ 7
Ġre t
Ġp ublic
Ġspe c
Ġh and
ĠL e
in s
y ing
p r
Ġg reat
Ġex t
ĠTr ump
ire ct
Ġc ar
Ġf am
t on
en se
ĠI s
Ġc ur
Ġw om
al th
ĠC om
Ġf act
Ġex per
Ġha pp
ĠThe y
p h
Ġb oth
Ġc ap
Ġf r
Ġre ad
Ġd ay
ĠA l
m in
Ġf ind
ic es
ul ar
ut h
Ġre p
Ġl it
Ġs l
Ġd et
o h
Ġd uring
e red
ĠS h
in es
t he
ĠA s
Ġc re
Ġs erv
Ġmon th
Ġb ig
Ġp erson
ak es
is ion
Ġde velop
Ġto ld
Ġf ollow
ĠC l
Ġis s
ic ally
Ġs ince
a red
ag es
m ed
e x
Ġ 8
Ġw ar
Ġf ew
i vers
Ġwe ek
ord ing
Ġc ent
g et
a j
Ġpol it
Ġle g
v es
Ġex pl
as h
Ġ 0
Ġg ener
Ġbel ie
Ġl ot
d er
r ic
Ġ 9
Ġf il
at a
re nt
ĠS e
Ġto o
i et
Ġre qu
an c
b ers
Ġo pp
W h
Ġcont in
iz ed
Ġpro t
ent ion
Ġp ut
Ġc le
n ess
Ġin f
ĠI f
Ġan other
Ġres p
Ġc or
ĠD e
2 0
ch ool
Ġdiffere nt
Ġsomet hing
Ġl oc
Ġs oc
Ġinv est
ut e
Ġc he
Ġcomm un
Ġpl an
Ġl ife
ĠF r
Ġ '
u c
Ġre le
Ġp ass
o x
i ence
Ġf ar
Ġar t
n ed
Ġp ower
Ġth ings
Ġm et
th ing
Ġhe ad
ar ge
Ġp oss
od y
ere st
Ġc amp
Ġv ot
ro ss
Ġm ight
iz e
ant s
Ġde p
Th is
Ġas k
Ġne xt
v iew
Ġne ver
Ġe ach
in ess
i er
Ġch ild
i k
Ġ .
Ġsec ond
Ġad v
ĠF or
Ġm ark
Ġde m
Ġqu est
ie ld
Ġb us
Ġcom e
ĠâĢ ĺ
ĠA n
Ġg ot
re t
i ent
Ġb est
Ġop en
Ġall ow
it al
ĠTh at
r at
Ġse em
Ġp ost
n ce
u g
ĠP ro
ĠU S
Ġfe el
Ġper cent
p le
gr am
s on
Ġp ri
Ġd ist
Ġh ome
Ġd irect
l ing
i red
Ġinc re
or n
l ess
ĠR ep
os ed
Ġcont ro
Ġres ult
Ġc are
Ġh ard
Ġcomp le
Ġh um
ate ly
Ġinclud ing
Ġim port
Ġwith out
Ġpl ace
Ġin form
am a
Ġm illion
Ġa v
Ġ ide
con om
ch n
Ġpro ble
Ġbu ild
g y
Ġnum ber
a im
Ġto p
one y
r al
Ġcount ry
ĠB l
ri end
Ġst and
Ġe l
u ro
t t
ab ly
is hed
c o
Ġg l
Ġf our
Ġpart ic
r ation
Ġm ov
Ġbet ter
w ays
Ġle t
Ġrec ent
Ġint erest
Ġt ri
B ut
l ine
Ġapp ro
Ġl ess
Ġlit tle
Ġbe h
Ġt urn
Ġcall ed
e ad
c l
Ġb ro
Ġse ason
1 0
is ed
Ġm il
Ġc ase
r act
a pp
Ġre st
en cy
Ġp op
Ġatt ack
Ġd r
Ġan n
Ġ Z
Ġle ft
od e
_ _
ĠThe re
Ġke ep
Ġf ull
Ġm ove
ĠI nd
Ġdid n
er ing
Ġf un
in al
in a
aj or
Ġm ain
m e
Ġeff ect
b e
Ġpre v
at ure
Ġpro gram
Ġus ing
Ġt est
le g
Ġpol ice
Ġp ay
Ġv al
Ġe ar
Ġw rit
t o
Ġfor m
ain s
ĠAmeric an
Ġe conom
Ġd ata
Ġp os
Ġnew s
Ġs it
Ġch ar
Ġw in
in ed
read y
Ġsm all
H e
iv ing
r ap
Ġle vel
Ġs chool
u ck
Ġl ist
olog y
m it
Ġwom en
id ed
' re
Ġpro cess
re en
ir d
pl oy
Ġe as
g er
i ans
Ġch ange
Ġp rom
Ġcur rent
Ġh ist
Ġpres ident
or th
Ġre ce
Ġcomp any
Ġd ri
ĠUn ited
us ed
ĠS o
Ġm at
ru ct
Ġal ready
ĠO b
oh n
Ġu nt
Ġwh y
Ġl ater
Ġb ook
Ġt y
Ġb re
Ġs ol
Ġm oney
Ġ =
Ġal ways
r on
Ġex pect
w it
Ġoffic ial
ĠH ow
Ġbus iness
Ġte chn
Ġ Q
st and
a ign
Ġth ing
ivers ity
Ġpro ject
Ġcl aim
Ġor gan
Ġinform ation
ĠA d
ĠP h
as es
Ġt alk
Ġb o
ĠS he
Ġj ob
Ġ- -
Ġpro f
Ġm ajor
Ġdes ign
Ġhe alth
Ġch ang
ĠB e
le ction
Ġv is
Ġab le
a ff
Ġst ory
ur s
iv en
Ġcl ass
er tain
ard s
he re
Ġre se
Ġp ast
ou th
ĠC an
.. .
pt ion
Ġf ree
Ġm ust
Ġo per
Ġa way
Ġc ity
ur al
s c
Ġhapp en
i or
uth or
Ġimport ant
ur y
ur ity
r ist
Ġk ill
amp le
Ġp at
Ġed it
Ġo ld
end ing
Ġ est
u red
iss ion
Ġdoes n
ac y
Ġle ast
Ġs k
Ġ1 8
Ġg row
Ġc ost
Ġm en
Ġd ays
Ġv ar
S t
ain ed
ĠG o
Ġcamp aign
Ġcon st
Ġh op
res ident
id es
id er
s ide
ĠM ar
Ġte ll
Ġc ame
Ġst re
ne y
Ġa ff
el s
o ad
Ġm ar
Ġt ax
Ġl arge
Ġk ind
cc ess
5 0
Ġen ough
Ġm aking
er n
Ġ1 2
Ġv iew
ĠS p
Ġfam ily
Ġf riend
Ġrec ord
Ġpol ic
Ġe lect
er al
us h
r or
ion al
at or
le y
iv ed
al ity
b y
is ing
Ġv ide
pp ed
Ġunt il
Ġde al
A s
if ied
Ġpolit ical
âĢ ¦
ri es
al f
Ġ ve
e e
au gh
b s
Ġto ok
Ġwork ing
ĠRep ublic
u ed
Ġf ore
are nt
Ġa ir
I f
Ġin tern
Ġde b
1 9
Ġ es
ĠJ ohn
Ġl ine
an e
ain ing
ĠS c
is ter
oc rat
Ġbec ome
Ġact ually
i ol
Ġme an
w ork
Ġf und
w are
on y
ot t
ap s
em ber
Ġof ten
Ġfor mer
Ġg ive
1 1
ĠE uro
Ġw on
ĠP l
Ġhum an
an n
Ġacc ording
-- --
m ost
Ġe ver
w h
ar ing
Ġor der
y ear
en g
Ġb it
ĠR uss
Ġwor d
is on
Ġret urn
Ġn ame
o int
Ġb as
Ġt imes
iz ation
Ġse ver
ĠD em
g in
Ġg ames
ic le
Ġde v
i qu
Ġp ar
it her
ĠS y
Ġn ight
ut ure
f or
ĠA ll
Ġchar ac
ĠO r
ĠM c
Ġper form
ra ft
Ġs ing
Ġ19 9
E R
Ġw r
id d
ĠA t
Ġf ac
ro p
Ġmark et
The re
Ġr a
ĠM ay
ĠC on
c hed
Ġdo ing
Ġl a
m ber
Ġapp ear
ak en
Ġle ar
at s
Ġe arly
ĠP resident
Ġha ving
Ġev ent
Ġto day
Ġplay ers
Ġse en
Ġsoc ial
Ġsever al
Ġc rit
id ence
Ġme et
art ment
Ġ1 5
Ġmed ia
Ġwhe ther
Ġp ot
Ġchild ren
Ġw ent
ĠY ork
and s
Ġmem bers
Ġsu re
Ġpro p
Ġyou ng
Ġcontro l
Ġf ive
b r
en e
Ġp ress
ious ly
Ġo cc
or ies
Ġe qu
un e
Ġen g
Ġmil it
i um
Ġ ,
Ġw ater
s h
/ /
Ġlike ly
Ġquest ion
ver t
ĠM r
ot s
Ġc ertain
Ġsh ort
Ġ vers
ĠSt ates
Ġex ample
en n
Ġd one
Ġar g
Ġinv ol
l f
end ed
Ġal ong
Ġsu ccess
i ver
ĠEuro pe
Ġs ide
ĠOb ama
ĠC ol
Ġdes c
i ally
Ġh our
Ġmonth s
b all
Ġan t
A nd
ent ial
Ġ ]
le t
em pt
Ġse x
Ġwith in
ag ue
ub l
ul ation
1 2
ĠB r
Ġcour se
n ect
Ġon ce
ĠO n
Ġinvest ig
u ff
Ġact iv
Ġam ong
ur ch
Ġf ight
st er
Ġunder stand
im ate
Ġcon cer
it ing
Ġch o
re w
Ġposs ible
Ġf uture
Ġa uthor
ort un
gg est
Ġthough t
m y
it ive
on es
Ġme ans
Ġproble m
Ġkn own
Ġpri v
oc i
Ġv iol
Ġprodu ct
ail able
âĢ ĵ
Ġcommun ity
Ġac ross
iv id
g ress
Ġ1 1
al d
our n
Ġloc al
Ġn on
in c
Ġh old
Ġy et
Ġf ail
ĠW hen
ĠC ar
p or
Ġor ig
Ġprot ect
Ġsu ggest
Ġ i
ĠN o
Ġre ason
Ġ &
l er
i ber
or ld
b ook
Ġm akes
n ot
Ġask ed
ver age
Ġg iven
ag ed
ĠSt ate
ed eral
ĠT e
Ġm us
Ġ201 6
b ack
Y ou
Ġother s
Ġstr ong
Ġvide o
Ġreport ed
Ġbelie ve
Ġpro b
an ces
ĠH ouse
ens ive
Ġget ting
Ġb en
o ber
ore d
Ġc a
iet y
Ġ ident
Ġann oun
Ġl im
Ġs ent
Ġ3 0
ĠUn iversity
Ġl ight
Ġc ut
it ions
ir on
Ġcon d
ĠCh rist
3 0
ĠC o
ur ther
Ġn et
Ġs our
as hing
am ent
' ve
am s
re st
Ġn ational
Ġde ath
Ġc reat
F or
Ġ X
Ġcl ose
Ġl and
Ġstart ed
u se
. ,
Ġb at
as ter
ĠDem ocrat
ar m
Ġsa f
Ġh ig
ĠC ent
Ġav ailable
Ġl ove
Ġind ust
Ġb ased
Ġl ow
res ent
o f
Ġhist ory
Ġacc ount
Ġm om
ut es
Ġiss ue
Ġfollow ing
Ġ201 5
Ġag o
ab ility
ĠA m
ĠM in
sel ves
Ġ #
Ġem ploy
ort s
Ġcom es
Ġser ies
Ġal most
Ġide a
Ġpart y
in ation
ĠAmeric a
u ly
Ġtr ying
ra el
A T
u ment
get her
Ġto gether
e b
Ġf oc
Ġacc ess
Ġfil m
her s
re ed
il ar
p ro
ition al
ie f
Ġcomm it
Ġ1 6
ĠF l
r ing
Ġpr act
Ġtr ad
ĠS en
th ough
Ġis n
a f
ĠWh at
Ġcle ar
ail s
Ġexper ience
Ġadd ed
1 5
Ġimp ro
ĠO ne
g ed
ere nce
er man
Ġr ul
Ġh alf
ust om
r ict
min ist
ĠB ro
a i
Ġl ive
ivid ual
Ġany thing
og rap
int on
Ġh it
Ġan al
un ch
Ġlook ing
wit ter
Ġs ix
ra w
Ġare a
ot e
Ġcomple te
Ġ201 4
Ġf av
ĠCom m
Ġb ill
Ġsay ing
Ġm iss
I N
Ġpres ent
ĠE x
ĠCan ad
Ġr is
ru g
a id
ci ally
at ors
ot o
Ġm or
Ġv ict
er t
ĠE ng
ĠP r
Ġcour t
Ġt aken
Ġb ad
u ge
n es
Ġa ut
pl ay
Ġcomp et
ow s
i en
Ġbeh ind
e v
Ġ er
Ġne ar
os p
Ġent ire
Ġsec urity
ĠP ol
Ġt re
Ġpro per
ĠT o
Ġtr y
Ġmilit ary
Ġm ult
Ġ z
Ġf ace
Wh at
Ġdisc uss
ward s
ĠD on
ir c
Ġr ather
' m
Ġto t
s y
Ġind ividual
ĠW ar
Ġsing le
Ġm ind
Ġ1 4
ĠA f
ĠM an
Ġth reat
Ġp ubl
am ed
Ġstud y
ap er
Ġf ood
Ġwant ed
at ic
Ġpolic y
Ġf all
p ar
al es
Ġqu ick
Ġsome one
ĠN orth
Ġm ess
ĠS ec
ĠB rit
id s
Ġbl ack
o ff
ĠIs rael
Ġc ult
ll ing
r is
Ġspec ial
O n
Ġre du
tt p
le ment
Ġs um
Ġcom b
* *
Ġ /
ĠN ational
p ly
Ġbr ing
W hen
Ġplay er
ĠD ep
Ġf oot
Ġatt empt
A n
Ġcomp an
Ġ Â
ĠG r
ol ution
Ġt aking
O N
Ġ1 3
Ġ1 7
Ġke y
el t
if y
1 6
ĠC al
ĠB ar
d d
ic ult
Ġel se
. )
ro te
v iron
Ġb ody
ĠW orld
o ver
Ġc ou
ashing ton
Ġnot hing
Ġprob ably
Ġfr ont
Ġcon nect
ĠI m
Ġpre t
1 4
Ġs w
Ġsp ace
Ġcom ing
ĠC ity
Ġhow ever
Ġdesc rib
ĠCl inton
m ing
c ing
y n
c hes
Ġrese arch
I S
Ġsim ilar
Ġ :
g o
Ġj o
re me
Ġben ef
R E
Ġm ass
Ġsign ific
Ġpoint s
ĠA ust
li er
ĠH ar
Ġs us
Ġex ist
Ġe ither
Th at
a ult
Ġdec ision
S o
l ish
Ġen c
ull y
Ġright s
Ġcon v
Ġc oun
ac es
m b
: //
Ġt arg
w w
ĠS u
an a
Ġh ouse
Ġfe at
Ġ |
ir l
Ġw rote
as ing
Ġim m
Ġserv ice
Ġb an
ro du
Ġd oc
Ġch all
Ġcom pl
un g
A N
s w
Ġf ig
Ġf urther
Ġf ire
Ġw a
Ġcre ate
Ġiss ues
Ġth ird
ive ly
Ġwho le
ri ed
Ġbe gin
Ġre pl
Ġst op
Ġ201 3
Ġsu per
Ġst ep
pp ing
ĠW ith
a pe
Ġrel ations
n ow
Ġf ield
ent ly
1 3
Ġevery thing
Ġc and
pe cially
Ġf ederal
Ġex ec
ĠG e
Ġtr a
Ġseem s
Ġro om
Ġp ick
r an
ĠJ an
ĠG u
a ul
Ã ©
ĠA pp
p ite
Ġse lf
Ġme as
ĠW ashington
Ġcompan ies
l u
Ġw atch
Ġd ue
Ġrele ased
Ġe y
ib ility
Ġs ound
u ation
Ġst ates
Ġlead ers
il t
Ġro le
C h
at t
am er
id ay
Ġofficial s
iv il
Ġbe gan
ĠHow ever
Ġl ab
Ġst ri
er y
Ġc ustom
Ġd am
Ġstud ents
o on
he ad
ĠS outh
Ġen er
ĠD av
e al
end er
Ġpos ition
Ġt reat
ob al
Ġcharac ter
Ġmat ter
Ġo pt
se c
Ġhim self
Ġout side
Ġ201 2
Ġstate ment
l im
ad es
Ġin it
ĠIn st
Ġfin al
Ġd ou
i od
l am
Ġst at
Ġprov ide
Ġbec ame
l ike
Ġam ount
viron ment
Ġdevelop ment
Ġ19 8
Ġhour s
Ġbre ak
Ġit self
Ġrep resent
Ġoff ice
ĠP art
Ġd i
ĠIn tern
Ġab ove
Ġcontin ue
Ġa ction
Ġgener al
Ġadd ress
Ġg un
Ġthem selves
Ġcount ries
Ġ2 5
Ġ201 7
ac ed
Ġ1 00
Ġspec ific
Ġne g
Ġl arg
re g
Ġsim ply
as k
um b
Ġinter view
ograp h
og le
ĠA ss
ace book
Ġsignific ant
Ġwas n
Ġad minist
' ll
Ġg round
ang u
Ġb ar
ĠJ ust
og n
Ġtr ue
Ġev idence
1 7
ĠE d
Ġdiff icult
Ġ )
ĠR es
Ġag ree
Ġvers ion
Ġrun ning
Ġprof ess
Ġd rug
il i
ĠG erman
re am
Ġgroup s
Ġbuild ing
B C
Ġd om
e ks
Ġwom an
Ġr ad
Ġty p
ar ter
Ġc op
Ġevery one
Ġt em
o id
idd le
ĠCh ina
Ġcomm on
ĠM ed
Ġneed ed
Ġshow s
Ġneed s
Ġin j
Ġl at
Ġd est
Ġmus ic
Ġrele ase
Ġresp ons
Ġb all
l ight
Ġde ep
Ġsa w
r ight
Ġex c
if t
1 8
ourn al
rib ut
Ġbel ow
Ġinclud e
Ġpret ty
Ġm ag
Ġener gy
ĠH is
Ġg en
A R
Ġqu ite
Ġplay ed
Ġm ot
Ġindust ry
Ġcand id
y le
Ġph ys
Ġa p
Ġwh ite
at ur
ĠA fter
ĠA b
Ġfriend s
b ody
Ġl ate
ĠW est
iv al
is c
Ġs ense
Ġb illion
Ġleg al
Ġplay ing
Ġch arg
Ġal leg
Ġh om
Ġl ost
A S
Ġ5 0
w here
Ġab s
H ow
Ġes pecially
Ġp le
ĠM us
Ġinst ead
Ġ {
Ġh ost
Ġan im
t ime
Ġval ue
cc ording
or ing
Ġre d
os ing
ag er
Ġob ject
Ġchang es
__ __
Ġper iod
le v
ist ic
Ġwe eks
Ġe lection
ĠNew s
om m
ep end
Ġsu ff
iqu e
Ġrecent ly
Ġj ud
ir t
b o
Ġfor ward
ĠN ot
Ġtr ack
ĠWh ite
Ġs ite
l t
med i
Ġl o
Ġvot e
Ġdet er
ĠT witter
= =
Ġp ain
Ġlong er
Ġopp ortun
ĠC ong
ac hed
Ġac cept
ĠO ct
o e
ar c
e ed
ri pt
h od
Ġmom ent
Ġhop e
Ġe p
Ġbl ock
o ke
Ġso on
op h
Ġeconom ic
Ġc irc
Ġdec l
ĠW ill
ir m
Ġsh oot
ã ģ
ĠDep artment
i j
du ct
Ġp ie
Ġt it
Ġwr ong
Ġrel ig
Ġwe bs
Ġhig her
n ers
Ġon line
anc ial
ĠM y
Ġwor ks
Ġc red
n s
Ġsh are
Ġpot ential
o le
Ġfoc us
Ġcons um
Ġcons ider
ĠM arch
c ial
Ġ2 4
Ġche ck
id ing
ĠSe pt
2 5
Ġed uc
Ġhe ld
ul arly
on se
ke y
ic ro
Ġgo al
Ġ <
Ġw alk
ove red
le ar
Ġp red
Ġmin utes
ĠD r
le ge
Ġword s
Ġst ay
ĠThe se
Ġl ed
Ġc e
Ġapp lic
Ġresult s
Ġc ode
Ġre ve
ĠRepublic an
Ġlaw s
Ġre v
The y
Ġfun ction
Ġst ru
Ġserv ices
Ġp arent
c il
ĠJ une
Ġw ind
ĠSy ri
a ut
Ġso ld
Ġart icle
Ġa ud
ĠM e
u ary
ĠA ug
p ut
Ġtot al
ur d
A d
f ect
Ġany one
Ġre view
ĠM ich
il ities
Ġris k
i ents
Ġa ge
Ġcont ract
Ġperson al
as ons
Ġpr im
P h
E S
ang er
it ution
Ġfav or
ate g
f er
Ġcomp ut
h am
Ġexp ress
Ġv ol
Ġup d
A l
h aps
v al
Ġtarg et
ĠP e
u le
Ġh y
Ġne cess
Ġr ate
Ġpop ular
Ġan sw
Ġear lier
r ay
Ġde ad
pr il
Ġd en
Ġ201 1
ap an
Ġproble ms
Ġres pect
ag ing
ĠD o
Ġrece ived
Ġen vironment
c he
Ġcre ated
end s
ĠP ar
Ġexpect ed
al t
ĠSt e
te e
Ġp ort
Ġb ase
Ġtechn ology
re et
u el
Ġincre ase
Ġsur pr
ĠCong ress
Ġw ays
Ġl angu
Ġcom ment
ud e
Ġsc ient
Ġ +
act ion
ĠJ uly
ĠG od
is l
Ġsh ot
ip le
ĠS m
Ġant i
b it
Ġp ack
Ġcan not
Ġp ur
Ġpriv ate
Ġannoun ced
Ġquest ions
Ġfor ce
ĠF acebook
n a
Ġeas y
Ġimp act
her n
av ing
ĠM ond
et er
at ives
on st
ater ial
Ġinvol ved
Ġter ror
ĠAust ral
ĠE n
Ġspe ak
pl es
ill s
ct or
Ġd iv
h ood
le x
Ġs en
it iz
Ġne arly
Ġexec ut
Ġex act
our t
Ġ19 7
re m
om b
6 0
ok es
Ġe t
ĠGo ogle
Ġc ivil
Ġrelations hip
Ġcont ent
i res
ues day
Ġmod el
e ch
ĠFr iday
Ġorig inal
Ġle ave
e es
Ġst aff
Ġty pe
Ġcap t
Ġins ide
Ġc ases
Ġc ell
ĠP al
T o
c ast
ell ig
re l
Ġintern ational
Ġf ans
ĠA pril
Ġco ll
Ġ201 0
ll ed
Ġph ot
at ural
Ġbro ad
Ġkill ed
Ġar rest
Ġa verage
Ġresp onse
Ġwork ed
Ġreport s
A t
Ġso ft
E N
Ġhe art
b or
ĠMond ay
Ġl iving
Ġbec om
ĠR ed
g ing
Â Ń
m p
Ġ ur
Ġcl ub
Ġus ers
Ġc al
ĠAmeric ans
Ġim medi
ĠN e
Ġresp ond
Ġest ab
Ġn ation
Ġsub ject
ĠC ount
est s
k y
ĠA ct
Ġob s
ĠP er
Ġwor th
Ġch ance
ip s
Ġgl obal
it es
Ġt akes
a el
Ġass oci
ĠT uesday
j oy
op s
he l
Ġdirect or
O R
rough t
is es
Ġsour ce
Ġter ms
os ition
r ain
Ġcol lect
ĠJ apan
Ġab ility
olog ical
Ġpr ice
iz ing
Ġdef in
Ġwork ers
ĠWh ile
ĠRuss ia
m on
Ġpubl ished
Ġfin ancial
Ġro ad
ove mber
Ġ @
Ġm other
Ġst ore
Ġde l
Ġo il
Ġm id
" .
Ġdec ided
Ġt ou
Ġs qu
Ġph one
Ġbu y
Ġwe ap
Ġe mer
Ġg ave
Ġhappen ed
ĠW ed
ĠS ome
Ġinf lu
ĠO ff
ĠCal if
Ġl ack
ĠN ow
Ġ4 0
vert ise
Ġl og
Ġfore ign
ov ed
Ġrequ ire
cl us
Ġl ives
ro wn
Ġind ic
Ġg irl
un t
Ġcurrent ly
Ġwho se
Ġaff ect
Ġcap ital
Ġoff er
Ġmem ber
ĠGe or
Ġmeet ing
ough t
b ased
ĠJan uary
Ġgo es
" ,
Ġf em
re ct
Ġt al
Ġar ri
Ġsit uation
in o
O ne
ĠS an
ĠA g
Ġm aterial
Ġp ict
Ġpartic ip
Ġnet work
ru ction
ĠB y
Ġpl ans
4 0
ĠS und
urs day
ap t
Ġmet hod
Ġc y
Ġturn ed
nes day
ĠF eb
ou d
Ġrec ogn
es e
f ully
Ġb ank
Ġreg ard
Ġsim ple
Ġ ill
ĠH ill
Ġint rodu
Ġteam s
l oad
Ġn orm
Ġh uge
Ġp age
Ġare as
ord er
l in
Ġev ents
Ġadminist ration
ĠAf ric
a ur
ĠSept ember
ĠC or
Ġcou ple
Ġperform ance
ĠN ovember
Ġf elt
ĠT V
Ġor d
Ġappro ach
Ġcare er
ĠIs lam
et y
Ġm is
Ġde li
o o
Ġv ia
ĠG l
Ġto ol
Ġh on
o or
Ġeng ine
Ġf re
um e
Ġquick ly
Ġ2 1
Ġem ail
im ent
Ġvict im
Ġr ace
Ġp ull
ruct ure
ĠDav id
Ġnum bers
Ġimpro ve
Ġr ound
orn ia
av y
ĠA ng
ĠEurope an
a ily
ĠWed nesday
Ġbu ilt
ĠP aul
Ġp ers
ch ie
b l
ĠTh ursday
Ġd ig
Ġhe ard
ĠC ourt
Ġth ous
Ġm atch
en ed
Ġf ather
Ġwebs ite
Ġl oss
Ġsec ret
Ġto wn
âĢĿ .
Ġre pe
Ġsp ent
Ġb oy
Ġte xt
Ġ2 2
Ġl ower
Ġeconom y
Ġco ver
Ġh ttp
f ace
an i
ĠS ch
Ġprodu ction
Ġw ide
ce mber
Ġne igh
Ġhand s
Ġen joy
Ġwant s
S h
ĠAug ust
us es
Ġpo ll
Ġallow ed
Ġinclud ed
ĠE l
ĠOct ober
W ith
Ġleg isl
Ġtra vel
A L
at ory
Ġreve al
Ġst e
) ;
] [
ict ion
ight s
Ġtr ade
Ġbo ard
d own
ĠCanad a
Ġvis it
Ġkn ew
Ġbeh av
Ġtri ed
---- ----
or ters
en ces
Ġse par
ct ions
Ġc ause
es tern
Ġget s
? âĢĿ
z e
9 9
ĠSund ay
Ġper fect
g est
Ġb i
Ġf ear
A fter
g round
Ġatt ention
Ġfor ces
Ġv o
ĠBrit ish
Ġpartic ular
ess ion
an ks
Ġgrow th
c le
Ġpop ulation
Ġve h
for ce
Ġs ize
Ġmove ment
2 00
ib ly
ĠRuss ian
ĠCalif ornia
Ġen s
ce ed
ĠU K
Ġb rought
Ġlook s
ar ily
ĠK ore
Ġre ach
age ment
Ġl ink
en ing
ur ning
' d
Ġb ud
Ġvar ious
ide red
Ġ }
u k
all ed
e g
ident s
ak er
h old
Ġr ac
A C
i am
ĠS w
c ies
Ġcont act
Ġs ong
Ġ2 3
Ġf air
Ġm ention
Ġfe ll
Ġprev ious
Ġmor ning
und red
Ġpro gress
ĠQ u
se qu
Ġh ot
m a
ĠP ost
y ond
Ġdem and
ĠDe cember
Ġl iber
f ield
ĠH er
ĠI S
Ġrul es
Wh ile
U S
ĠC ont
ra z
E D
Ġtr aining
ĠJ ew
Ġc itiz
c ome
s et
om p
Ġlead er
Ġh or
led ge
I T
Ġ ess
O S
in ks
ra q
ĠBl ack
Ġim age
ar th
ĠSt reet
ec ause
Ġse arch
Ġlat est
ĠP at
Ġind epend
ellig ence
ific ation
Ġlangu age
2 4
u ments
Ġup on
Ġmed ical
Ġpre p
Ġcons idered
ĠT imes
Ġtalk ing
ond on
Ġstru gg
i ant
Ġf ast
Ġst ar
h a
b ed
ĠSen ate
Ġco ach
v ent
Ġw ond
ĠP ark
ic les
T r
Ġspe ed
ĠPart y
Ġfeat ures
Ġadd ition
Ġex am
ar ies
atur day
Ġinvestig ation
Ġsl ow
g es
sy ch
p s
im ately
Ġu nd
Ġm ach
ĠCent er
ĠK ing
Ġre b
et h
ap h
I C
Ġ200 8
Ġcon duct
il le
Ġa chie
Ġdo ll
Ġsystem s
Ġs ort
Ġb ox
Ġcrit ic
im in
op e
Ġp aper
Ġlevel s
Ġcons erv
Ġs n
he t
u it
e ared
ys is
8 0
w o
Ġwrit ten
id ge
p ir
Ġp en
k ing
as c
Ġhe ar
ĠI ran
ĠCount y
Ġd raw
Ġpri or
Ġincre asing
ĠInd ia
Ġprev ent
ĠI raq
Ġjob s
Ġdoc ument
ist an
Ġsex ual
ĠMus lim
u f
Ġ200 9
ig r
Ġsp okes
Ġs on
Ġreg ul
Ġext reme
Ġparent s
Ġse ven
t r
ĠM ark
Ġs ens
ĠT ex
ru ary
Ġsc reen
2 2
Ġeff ort
Ġcomplete ly
e xt
Ġser ious
r ast
at form
Ġin n
Ġc ard
it ch
Ġlear n
ro om
in ing
Ġsur ve
Ġclaim s
Ġe ight
Ġ â
ĠDon ald
Ġcon c
ic o
Ġr ange
reed om
Ġdou b
Ġsoc iety
Ġinterest ing
un k
et t
Ġdes pite
vertise ment
Ġob v
ĠR om
ren ch
Ġviol ence
Ġmess age
Ġmajor ity
our ces
Ġpartic ularly
Ġattack s
ish ing
Ġopportun ity
e ff
Ġrequ ired
an ced
Ġgu y
S he
ĠE m
Ġext ra
Ġansw er
ĠL ondon
O P
Ġn atural
Ġcar ry
Ġexper ien
Ġoffic ers
Ġexact ly
ent ially
ab or
ar i
ens ion
Ġp aid
Ġj ournal
ĠK e
ill ed
ĠM ore
Ġc ross
Ġsc ience
ĠN et
am ing
Ġbig gest
ines e
Ġmod ern
n y
Ġcl imate
Ġd ro
Ġex cept
ĠE ast
ĠCh ar
ad d
ib r
in ally
Ġh undred
Ġare n
Ġ ...
uc lear
Ġmov ie
os es
A M
Ġpract ice
ĠS aturday
er ve
Ġg as
Ġst ories
n ces
ly ing
i ers
Ġrem ain
pp er
Ġcertain ly
Ġm iddle
Ġlook ed
Ġdescrib ed
is ions
Ġdef ense
Ġsomet imes
ut ions
Ġcon vers
Ġproduct s
Ġsur v
Ġter m
Ġhist or
Ġl ay
h ib
Ġshow ed
Ġa w
Ġr out
Ġpr ison
Ġst uff
Ġcommun ic
osp ital
Ġt able
Ġ2 7
Ġfin ally
Ġqu arter
ous ly
Ġocc ur
Ġim ag
av es
Ġlead ing
f l
ĠS and
Ġu lt
Ġus er
Ġbl ood
u ing
Ġqu ality
Ġchang ed
Ġcost s
Ġon es
ĠS pe
ĠFeb ruary
Ġsum mer
Ġn amed
augh t
er c
ĠMc C
Ġrem ains
Ġdet ails
Ġp an
Ġg iving
ak ers
co in
Ġp ath
ĠS oc
ĠC he
Ġstart ing
Ġ >
Ġwrit ing
Ġpo or
Ġprov ided
Ġeduc ation
ĠI nt
Ġd anger
en ge
ar r
Ġdem onst
ic ks
Ġreg ion
Ġcom ments
Ġthink ing
Ġch ief
Ġmult iple
Ġpur p
Ġm ob
Ġf it
F L
in ary
Ġcontin ued
id a
ĠT H
Ġgrow ing
Ġdam age
Ġpart s
ĠM or
Ġmain tain
Ġm ent
ĠDemocrat ic
Ġass ist
Ġd ied
ĠG ener
Ġf ix
ĠT ur
2 3
Ġ *
ĠRepublic ans
ĠE ven
Ġp urch
ĠLe ague
ĠC oun
Ġrequ est
mit ted
Ġsaf e
N o
Ġcall s
Ġread ing
Ġm ill
Ġcult ure
im inal
Ġread y
Ġwould n
f ort
y l
em s
Ġwr ite
Ġsp ot
Ġ2 6
p re
Ġimp lement
ag o
Ġeffect s
Ġ2 8
Ġeff orts
z z
b an
Ġh ous
Ġce le
Ġper haps
ĠD es
ab les
ar ian
Ġincre ased
Ġvot ers
Ġreal ity
Ġal though
ĠB ill
Ġstand ard
d e
u x
op er
I m
ĠF irst
Ġus ually
Ġdirect ly
Ġfoot ball
Ġgu ys
Ġal one
us ing
al y
Ġspe ech
Ġcomple x
ic ated
ĠCh inese
Ġto wards
row d
Ġc amer
B I
Ġsub st
Ġbe yond
Ġk ids
Ġcons ist
Ġav oid
ou l
Ġf ile
Ġse lect
Ġcould n
Ġinclud es
it ute
R e
Ġ ver
Ġsc ene
s p
Ġt ro
Ġcho ice
Ġpl atform
an ch
ĠMich ael
Ġimmedi ately
ĠJ ames
Ġstud ent
ur g
Ġthrough out
Ġun f
ar a
Ġcent er
ĠTex as
Ġadd itional
Ġchall eng
st on
ĠB o
Ġcon cept
Ġw ife
ĠJ ack
e gr
Ġrese arc
Ġc at
Ġrem ember
w ise
Ġs le
il es
Ġag ency
Ġt en
Ġ il
ĠS er
Ġrec omm
Ġcl os
Ġro b
Ġsoft ware
Ġcor por
A ll
ĠC ons
it or
f ord
Ġop in
ur t
Ġdesign ed
ag on
ic ient
Ġto ward
ĠM on
Ġsaf ety
Ġrel ative
Ġg one
Ġep is
Ġfig ure
he st
Ġ( @
ru pt
ĠApp le
Ġbr ain
Ġdeb ate
im um
ĠInd ian
Ġmov ed
ast ic
Ġbl og
ĠâĢ ¦
ĠMin ister
Ġoffic er
ac hes
ate ver
om en
Ġpie ce
Ġthous ands
Ġc ast
ir th
Ġo ption
Ġpass ed
Ġst age
il ies
Ġs we
Ġa head
ress ion
Ġpress ure
am b
Ġs il
Ġlet ter
N ow
Ġ6 0
Ġbat tle
ĠG reen
ĠI I
port s
Ġrece ive
amp ions
Ġdo g
ĠS erv
Ġpre c
air s
O T
m en
Ġcoun ter
it ation
ber g
Ġla unch
Ġcle an
n ew
Ġ ut
o es
Ġdis app
Ġse ll
Ġproper ty
ol ute
ro y
Ġappear s
Ġmean ing
Ġcr is
Ġdri ve
ad em
ĠAss oci
Ġalleg ed
Ġsus pect
Ġhelp ed
Ġro ck
Ġsc ore
ĠThe n
Ġd ate
2 7
j ust
Ġcond itions
Ġt our
Ġd ark
ĠR ich
Ġn ature
ĠDemocrat s
Ġn om
Ġ ign
ĠSu per
w ood
Ġcomput er
Ġs at
ri ef
Ġcharac ters
ĠPl ay
Ġre asons
Ġde g
Ġdiffere nce
Ġorgan ization
augh ter
Ġbud get
Ġf an
Ġn uclear
ĠEng lish
Ġdev ice
le ase
ĠS im
Ġbegin ning
Ġcent ury
A D
Ġbook s
Ġtou ch
Ġfail ed
Ġmov ing
? "
Ġp ark
Ġtw e
Ġenc our
ĠM art
Ġmy self
.. ..
Ġref er
Ġmay be
Ġhapp y
m ore
Ġa im
Ġcomp ared
Ġcomm and
ch an
ĠSt ar
Ġtit le
Ġsh own
Ġcop y
Ġ x
ock ed
Ġest im
iv ity
A P
ĠF rench
Ġb al
y an
Ġle ague
Ġst ra
4 5
Ġw all
Ġsp ending
ci ent
Ġey es
Ġpos itive
Ġcitiz ens
Ġtr ust
Ġsc he
ĠR ober
Ġdis p
ĠH ere
Ġcandid ate
Ġnecess ary
ig ration
3 5
Ġschool s
Ġcol lege
Ġcont ribut
Ġb and
Ġpower ful
Ġevent ually
Ġar ch
ven ue
Ġlim ited
ĠV al
Ġ19 6
ent y
Ġanal ysis
ĠD ay
Ġpresident ial
Ġc rowd
Ġconf erence
Ġco ol
et ro
ĠT or
ĠB en
or ks
Ġcor rect
Ġlarg est
Ġexecut ive
ĠSyri a
Ġnot e
Ġme ant
Ġfollow ed
M y
or ney
Ġfor ced
Ġtreat ment
ress ed
Ġa ware
ain t
Ġy es
our ce
Ġs al
uf act
2 6
Ġm ix
a ud
Ġfe ature
ĠA ir
Ġf irm
Ġil leg
Ġrelig ious
Ġfe ed
ĠO f
Ġallow s
a res
E C
Ġb ott
Ġfam ilies
Ġaut om
Ġconf ir
Ġstre ng
N ew
k en
Ġeas ily
Ġes c
Ġth row
I s
Ġgr ad
Ġp us
er o
Ġyour self
Ġapp eared
Ġfre qu
ir ing
Ġphys ical
en cies
Ġ2 9
Ġact ions
Ġg ives
Ġsus p
c raft
Ad vertisement
I D
b and
B e
ĠB el
ĠW ind
Ġdet ail
B y
r ated
Ġinc ome
Ġpolit ics
Ġcent ral
ĠD is
ub e
Ġd raft
Ġsen ior
Ġsign ed
Ġcr ime
c ul
Ġide as
Ġan g
Ġover all
Ġdis play
Ġdec ades
ĠM ex
Ġprom ot
ĠGo vern
ri age
Ġsm art
Ġanal y
Ġun ique
I A
in n
Ġn ice
Ġdis e
Ġcred it
ĠÂ £
Ġcris is
Ġr ap
n own
in y
bo ard
Ġus es
Ġh ar
ĠIntern ational
A ccording
Ġ Ð
ĠC ap
ĠAustral ia
Ġdevelop ed
Ġl if
E T
Ġweap ons
Ġdo or
Ġint elligence
Ġch arge
ite ly
Ġbenef its
Ġtr uth
er ry
b um
! !
ĠE U
r s
Ġal tern
D on
Ġp sych
2 8
ur ance
Ġnot ed
ĠPol ice
Ġm ist
ĠS chool
ĠAr ab
ut y
i able
Ġgo als
Ġr ates
Ġconf lic
n et
ĠGerman y
res h
Ġfull y
Ġpred ict
ĠAng el
Ġindividual s
on ents
Ġs ales
Ġapp arent
Ġre form
erv ed
Ġchall enge
ĠE arth
Ġl ic
Ġr ule
Ġcontin ues
b ox
Ġrel ated
p art
Ġd rop
O M
m ar
Ġcustom ers
Ġproject s
Ġprev iously
ch ange
Ġlarg er
ĠFr anc
Ġst o
ĠGeor ge
ĠUn ion
Ġpe ace
Ġbe aut
) :
ĠChrist ian
Ġadv ant
2 1
Ġseem ed
ot i
ĠH igh
Ġinc ident
2 9
b on
Ġstra ight
Ġman ager
ow ers
Ġre ached
s er
Ġcr iminal
S ome
Ġem b
Ġsuccess ful
Ġmin or
i ance
ĠCoun cil
Ġexp and
Ġbro ther
Ġsp read
Ġprim ary
or ter
Ġsp ir
Ġmeas ure
Ġl ines
Ġhigh ly
id ers
Ġcle arly
P ro
Ġatt ract
Ġprogram s
sec ut
ĠSm ith
Ġtr aff
ĠT om
Ġgreat er
ound s
ant ly
ate gy
wh ile
ĠCom p
ic it
ĠIntern et
Ġke pt
Ġknow ledge
Ġdeter min
Ġsa ve
in ated
d om
U n
Ġem ot
ĠBro wn
at tle
k i
Ġres ources
ol ic
Ġfavor ite
Ġr are
ĠH am
Ġwe b
ĠC r
us ion
1 00
e an
ĠR ec
ĠA nt
ĠU p
Ġr ise
se y
Ġactiv ity
Ġstud ies
A r
ic ed
Ġown ers
Ġfe et
ĠGener al
Ġpl aces
ĠFl or
od ay
qu e
Ġvo ice
Ġsour ces
Ġ200 7
os h
Ġar m
Ġpre m
w ide
Ġreg ular
oc ks
ot a
Ġknow s
Ġs end
Ġc ities
Ġshoot ing
Ġf ine
ĠM ac
Ġla un
ĠD ef
Ġstat us
Ġfight ing
ĠL a
Ġlit er
ter m
v ille
Ġca used
m iss
Ġnorm al
ic ago
Ġorgan iz
Ġopt ions
Ġman ufact
ro ll
Ġcol or
on ent
Ġsp end
Ġclaim ed
Ġcall ing
lev ision
il ed
Ġref lect
E O
ad o
IN G
Ġresearc hers
Ġsh ut
7 0
eng th
ww w
ol es
Ġpolic ies
Ġend ed
m ission
Ġint egr
a ith
Ġha ven
Ġp un
ĠEng land
it ness
N ot
Ġv irt
ĠE very
if ying
ĠF rom
Ġen em
ĠR ob
Ġpro s
Ġfem ale
Ġadd ing
mit tee
rib ution
or g
3 3
Ġn ames
. âĢĻ
Ġgr and
ĠG old
Ġpr int
Ġpat ients
Ġra ised
Ġpr ices
Ġtrad itional
Ġtr ou
Ġconcer ns
ing er
Ġe le
Ġh ospital
iver se
ĠB re
Ġfund ing
Ġwill ing
Ġpl ant
Ġhapp ens
Ġbas ic
Ġemploy ees
y a
ro l
Ġbe at
Ġsupp osed
ĠSc ott
Ġcharg es
Ġauthor ities
m ark
Ġabs olute
Ġf reedom
Ġsc en
ic a
âĢĿ ,
Ġst yle
Ġsl ight
lic k
Ġj ump
Ġwa it
Ġl ik
u ana
Ġac qu
al se
Ġact ual
ĠB ay
Ġe th
Ġcom mer
Ġbehav ior
se e
Ġmin ister
E L
Ġim pl
Ġcreat ing
ro id
Ġle aving
Ġal bum
ve re
um an
Ġb irth
Ġagree ment
ĠA P
Ġbe g
ab y
ĠM ag
Ġsee ing
Ġme chan
ĠM o
S c
Ġgo ld
ĠM ost
Ġst ation
Ġg reen
Ġoff ered
Ġad op
. '
ac ing
S A
H ere
p en
ĠB er
ĠWe ll
on a
Ġc ry
Ġp ush
Ġ ir
Ġprop os
Ġapplic ation
Ġpost ed
r am
Ġweek end
Ġmost ly
ĠA ccording
c her
so ft
it ude
Ġval ues
ĠFlor ida
ear ch
Ġr ank
g en
ĠHill ary
ĠA lex
Ġbelie ved
Ġens ure
Ġwe ight
ĠTr ans
O U
Ġ Ã
ri an
ij uana
Ġey e
Ġpict ure
5 00
E x
ĠFr ance
Ġreveal ed
Ġb rief
Ġwh atever
t ies
Ġcho ose
Ġrecord s
Ġen force
Ġmass ive
ign ed
Ġun s
ĠL et
Ġtem per
Ġlaw y
Ġstr ategy
Ġad ult
Ġv ac
Ġlear ned
p ri
Ġwond er
Ġdev ices
Ġinst all
ĠL aw
Ġapp l
Ġm er
Ġbenef it
Ġf at
ist ry
Ġqu al
ĠS un
Ġpart ies
Ġc ars
ĠRe g
Ġwh om
Ġm ission
Ġstre et
9 0
Ġarrest ed
Ġent er
Ġd ire
Ġfeel ing
ing ly
Ġass ault
Ġjud ge
ĠCh icago
ag s
u ild
ĠPe ople
Ġinflu ence
ri ption
ĠB ush
Ġprov ides
est ic
ic ial
Ġw at
Ġm ount
Ġt end
ĠL ou
Ġl ose
Ġprodu ced
li ament
Ġres idents
Ġask ing
c ont
Ġw ild
I L
C l
ĠM at
Ġshow ing
ĠPh il
ĠB it
Ġcele br
ect ion
Ġcrit ical
Ġneg oti
Ġdist rict
Ġestab lish
ĠPal est
Ġconfir med
Ġim ages
Ġoper ations
== ==
Ġb order
ĠSt ud
Ġprodu ce
Ġpat tern
st e
Ġrun s
Ġopp osition
Ġc ru
ĠCom mittee
a e
ak ed
n o
or ial
Ġmem ory
Ġse ction
ĠHe alth
Ġdr ink
ĠW all
ĠComm ission
ud d
ĠP ort
Ġc ore
ĠS am
Ġdoll ars
Ġet c
How ever
Ġt ick
Ġadv oc
ĠP ress
ce ll
Ġdeb t
Ġk ick
ent ed
ĠSec ret
Ġsol ution
Ġte ac
Ġinterest ed
ĠM od
Ġindepend ent
Ġdig ital
ĠO h
h ttp
Ġv ill
ci ence
ĠFranc is
ra v
Ġag reed
Ġbr and
Ġmar riage
ĠWh y
p oint
Ġd er
oc r
ord s
u gg
Ġeffect ive
Ġopen ing
Ġgener ally
ĠJust ice
____ ____
S T
ic ians
B A
r ont
Ġlear ning
Ġdef end
i ation
ĠM al
Ġhig hest
ri al
i pe
ĠL iber
Ġm ur
Ġocc as
ĠC up
Ġoff ers
et ty
Ġhe ro
m ine
Ġrespons ible
Ġrest rict
ĠO ther
Ġwor se
Ġche m
Ġch air
ĠKore a
Ġthe ory
Ġtri al
Ġmill ions
Ġinvest ment
Ġd aily
Ġrepl ace
Ġopin ion
ur ies
Ġmil es
ĠM icro
ĠOff ice
ill ing
ĠW estern
Ġdef e
Ġprot est
Ġprop osed
Ġbas is
Ġ ice
Ġb ur
Ġexpl ained
ĠM ike
Ġhe avy
Ġtr ain
Ġtyp es
The se
Ġspec ies
v est
Ġpart ners
ĠF ound
Ġob tain
ĠO ur
ĠB ecause
o ly
Ġte levision
Ġcond ition
r ig
4 4
Ġlim it
ĠN FL
Ġm ale
Ġassoci ated
Ġachie ve
k nown
Ġco al
w in
Ġ8 0
Ġhundred s
Ġbecom es
M r
Ġass um
Ġl oad
com ing
r ate
Ġunderstand ing
ĠSec urity
Ġre ject
ad a
ĠD el
Ġopen ed
ak s
Ġsur round
Ġon to
ĠM il
ort hern
out hern
Ġinit ial
Ġdest roy
Ġadvant age
ber t
C on
u pp
ic ip
Ġph oto
Ġsle ep
Ġth us
Ġannoun ce
ĠAd d
3 6
ĠM any
ĠJohn son
and er
Ġprofess ional
Ġb ed
ĠU k
Ġb orn
ĠG reat
ad ing
Ġbecom ing
Ġr at
l a
Ġlegisl ation
Ġneigh bor
we ll
ĠA tt
az ing
Ġs pl
Ġh arm
ĠB ig
00 00
Ġcontro vers
Ġilleg al
o om
ol f
Ġeas ier
Ġm ap
Ġacc used
C C
Ġres ist
Ġsh ip
Ġredu ce
Ġserv ed
Ġbelie f
3 2
Ġv s
Ġveh icle
Ġun like
Ġdep artment
od es
el ine
Ġser ve
Ġdoc uments
Ġm icro
Ġloc ation
Ġsh ared
Ġact ive
N A
Ġpurp ose
Ġb omb
Ġ3 1
i os
ĠWind ows
P A
ĠD ist
Ġjo in
Ġvictim s
re y
Ġman agement
Ġscient ists
wit ch
Ġmach ine
Ġwin ning
land s
ĠAr t
ĠJ er
Ġreturn ed
Ġintern et
Ġn ine
Ġaud ience
l ant
Ġextreme ly
Ġam b
Ġbott om
h ouse
Ġinc red
ear s
ã Ĥ
ĠCanad ian
Ġd ie
Ġdou ble
ĠIn c
z a
ĠComm un
B S
m et
Ġ3 5
3 7
ĠL ab
Ġsol id
l ished
or row
Ġput ting
P S
ĠSand ers
Ġneg ative
Ġfr ame
le vel
Ġsepar ate
as y
Ġcamer a
ortun ately
Ġ200 6
Ġwe alth
Ġcom fort
Ġelect ric
om as
Ġexist ing
ĠInst itute
Ġr an
ĠIslam ic
ĠH all
G B
i h
Ġnot ice
Ġ9 0
3 8
4 8
Ġte ach
Ġch urch
Ġun c
Ġhe aring
Ġdoub t
ir gin
Ġexpl ain
ad y
ist ics
at ically
Ġwatch ing
ac ity
Ġepis ode
Ġcommun ities
Ġp urs
âĢ ¢
B l
Ġleaders hip
Ġcommit tee
Ġdefin itely
if ul
Ġmar ijuana
Ġarg ument
ĠY our
w orks
ĠD irect
te red
ĠM ad
O L
ograph y
Ġvict ory
Ġinst ance
Ġconserv ative
F C
ĠB ank
i pped
Ġview s
Ġf aith
Ġmob ile
Ġnot es
Ġsupp orters
it t
Ġst ructure
res p
Ġapp eal
ili ar
gh an
wh ich
ant ed
ĠIsrael i
Ġsit es
i pp
Ġtrans fer
Ġback ground
ĠF in
Ġf resh
ill er
Ġlaun ched
Ġm ax
ĠA M
sc rib
ĠF BI
Ġfl oor
Ġrest aur
he m
Ġco verage
Ġlab or
Ð ¾
om an
A meric
ar io
in ct
z en
Ġdrug s
Ġn or
Ġdanger ous
Ġtraff ic
Ġcompet ition
go ing
Ġdire ction
ĠG ame
Ġno vel
Ġrepe ated
Ġn orth
ĠS l
Ġiss ued
Ġsp oke
Ġset t
Ġh ack
Im age
Ġtre nd
Ġsuggest ed
Ġref ere
ĠCh urch
ĠL ike
Ġst ated
4 7
Ġre act
Ġcommer cial
Ġcharg ed
ĠP M
ĠF ox
g ency
ampions hip
ĠE v
âĢĶ âĢĶ
Ġexper iment
Ġd ed
ct ors
Ġs un
Ġh us
Ġf alse
Ġcl osed
Ġdec ade
Ġwor st
Ġ ;
Ġit ems
Ġsupport ed
Ġsmall er
Ġcont ain
ic i
ĠS ince
Ġdri ver
v ention
az on
Ġdise ase
ĠCar ol
ĠW il
Ġtell ing
Ġdri ving
rib ute
ĠO ver
Ġentire ly
# #
ul f
E M
Ġdisc overed
Ġrad io
Ġd aughter
ĠL os
Ġcomp ar
Ġas pect
r ad
Ġold er
Ġc ateg
s pe
Ġt ask
b ut
ĠBrit ain
Ġanim als
5 5
and on
Ġg e
Ġfind ing
ĠQ ue
Ġc ash
ann el
b ing
Ġconcer ned
ĠJew ish
se mb
Ġlarge ly
Ġsur face
Ġfar m
N N
ĠUk rain
ĠA c
d o
f erence
ul ated
Ġg ay
ĠP ri
o very
Ġpl ays
il ing
Ġcont ext
Ġc ards
Ġex erc
Ġ7 0
and om
e qu
Ġcandid ates
ĠT re
C H
Ġple ase
i us
Ġtool s
Ġmur der
a it
ĠU N
ĠJ ones
r im
iz es
Ġc aught
Ġtest ing
! âĢĿ
h ow
Ġann ual
Ġgener ation
Ġwe l
Ġrequ ires
Ġra ise
Ġjust ice
b re
ibr ary
r ick
Ġactiv ities
Ġf uel
ĠS up
âĢ ĺ
Ġtrans port
Ġstreng th
Ġbusiness es
n ight
cept ion
ĠRober t
av a
ic y
Ġstr ateg
Ġconst ruction
ĠCh ris
Ġbelie ves
Ġins urance
Ġallow ing
Ġtr uly
Ġconcer n
Ġst ock
Ġw itness
oss ible
S P
ĠAfric a
Ġacc ur
ar ant
Ġcon sequ
ĠM iss
an cy
Ġse qu
Ġsc ale
Ġhold ing
ĠG ree
Ġcell s
ph one
ĠA re
3 9
oy al
ĠS il
Ġph il
it able
ĠJ im
Ġaff ord
Ġgu ess
3 4
ter y
Ġl ength
ĠK en
oll y
Ġplan ning
Ġatt end
os ure
ang ing
Ġjo ined
ĠP C
Ġr ough
Ġdec isions
pect ive
ck now
Ġref uge
D A
Ġpres ence
ĠAfric an
Ġhigh light
igr ants
Ġun it
n el
ĠAssoci ation
ĠT y
Ġspokes man
Ġs an
Ġk id
Ġtell s
e y
** **
Ġpl aced
Ġintrodu ced
Ġwa iting
b our
ic on
ĠPalest in
ĠK h
Ġmiss ing
ĠAngel es
Ġt im
Ġbl ue
ĠSt ep
Ġdeli ver
Ġe at
Ġenforce ment
Ġmention ed
l or
in ter
L e
Ġinterest s
ĠP re
Ġban ks
M ore
k ins
Ġestab lished
ro s
ĠAf ghan
Ġconflic t
Ġprov iding
ĠG OP
ocr acy
ĠM er
Ġdown load
ĠV er
Ġinj ury
Ġhom es
Ġocc up
Ġupd ate
ĠJ eff
Ġinit i
Ġhas n
Ġrem oved
ĠJ ud
Ġconvers ation
Ġab use
Ġnews p
az ine
Ġrecomm end
Ġc atch
Ġ200 5
form ation
Ġdiscuss ion
Ġb ul
ot ed
ĠMicro soft
v ant
ĠF ore
Ġhous ing
Ġuse ful
ron ic
ĠLe g
wh at
ĠInst ead
is ation
Ġf ant
Ġoper ation
Ġspir it
Ġsto pped
ĠY es
Ġgr aph
it z
Ġmeas ures
A A
Ġcan cer
ĠPro f
Ġarri ved
it er
ĠJapan ese
Ġs outh
om s
Ġmod els
Ġobv ious
Ġst ick
and a
Ġfoc used
ĠG roup
c ks
Ġc ook
ic ations
4 9
Ġman aged
ĠP ak
Ġconc lud
ĠFr ank
m ail
k in
l ig
Ġsp orts
Ġoff ensive
Ġfil es
ĠLou is
Ġha ir
ul ate
Ġass ess
Ġappro pri
Ġthere fore
ont o
ĠR ock
Ġset ting
Ġident ified
se ason
ĠC EO
re al
ig an
ag n
Ġ201 8
Ġfig ures
Ġa cknow
ĠAr my
ow l
um n
O ur
ĠCon st
Ġown er
7 5
Ġother wise
ul a
Ġfour th
ĠS al
Ġrelative ly
Ġgirl s
Ġident ity
ĠM et
Ġfund s
Ġtrans l
T C
app ed
ic ation
Ġkeep ing
Ġcommit ted
Ġphot os
up s
ĠSup reme
Ġve ter
Ġpre fer
g a
Ġfin ished
pl ace
Ġear th
ĠV irgin
P l
Ġsk ills
igh ter
ver se
Ġex change
itution al
ĠTH E
out s
oc al
ĠMex ico
D es
Ġex clus
Ġconnect ion
k a
Ġfeel s
Ġ200 0
Ġtax es
Ġstep s
ĠM ont
Ġcl ick
Ġt ough
ĠRich ard
Ã ¡
ĠR yan
ĠN or
ĠGovern ment
R A
w ing
Ġcol lection
ĠT im
Ġpart ner
e ah
Ġslight ly
is f
Ġsupp ly
Ġdet ect
ĠIn ter
Ġhus band
Ġsurve y
ĠMart in
Ġtri p
Ġf le
Ġsuggest s
Tr ump
Ph oto
Ġkill ing
u ct
anc ing
m akers
Ð °
Ġcomm ission
G o
ic ide
ren cy
Ġro ll
Ġg ain
hen s
Ġme re
Ġsee k
dd en
Ġcirc um
Ġwe ak
ens es
Ġcor ner
ĠAnd roid
Ġdep end
od ies
ĠAl though
Wh y
Ġtwe et
v is
ĠS ur
Ġspe aking
ĠS ub
m as
r d
ony m
Ġag gress
Ġsu st
g ar
Ġele ments
Ġa ward
r ange
w ith
an ia
il s
Ġplan et
Ġstart s
Ġreg ist
ad ium
re es
Ġhappen ing
Ġment al
Ġg ender
ost on
g n
Ġfail ure
ĠI r
Ġplan ned
Ġrem ind
Ġn one
6 5
uck y
Ġprotect ion
Ġh ate
ag ues
Ġsecond s
pro f
Ġdef ensive
Ġwind ow
gy pt
Ġstri ke
Ġspe ct
Ġrev olution
Ð µ
Ġorganiz ations
id ering
ol it
Ġbig ger
Ġgu ard
u ate
Ġfam iliar
hed ul
Ġst ruct
el ess
Ġtal ks
ĠG ood
Ġd at
Ġthan ks
Ġp it
ĠThe ir
g ers
Ġcre w
ĠJ ose
Ġimm igration
Ġw ish
ĠTh omas
ĠD ec
Ġapp oint
y m
yn am
Ġam azing
ĠJ oe
ã ĥ
Ġdom estic
Ġscient ific
Ġcar ried
Ġsu dden
Ġs ides
] .
H L
Ġdec ide
Ġstand ing
ĠRes earch
ĠM ary
l o
st ream
Ġv ul
ĠM P
Ġqu e
ĠTe am
" :
ĠU s
ad ed
Ġar my
Ġenvironment al
ut ers
ack s
Ġsc ript
a wn
L ast
Ġinter act
Ġmult i
ĠF ire
Ġdro pped
er ous
Ġhelp ing
Ġ3 2
im al
Ġfil ed
a ven
an o
ars h
k es
ĠAl so
Ġvot es
Ġvar iety
ĠT er
Ġstand ards
u ke
Ġphil os
Ġmark ets
Ġl ived
Ġcut s
oc ol
ĠO ut
p m
Ġaccount s
Ġprofess or
c ious
ĠB ern
ĠServ ice
ĠIm ages
Ġset tle
ĠCol lege
ru it
Ġpr inc
Ġneighbor hood
Ġoper ating
Ġbal ance
Ġter rit
Ġdeg ree
f e
ĠFound ation
Ġ \
Ġ4 5
r un
is er
Ġimp ossible
Ġbe er
Ġwor ry
ol a
ill a
ĠSyri an
Ġposs ibly
g u
Ġhum ans
ict ed
h i
ĠWe b
ob by
Ġturn s
Ġr ich
Ġfell ow
Ġaltern ative
Ġun ivers
Ġac adem
ĠAt lant
Ġincreasing ly
are n
ĠSecret ary
Ġcol le
Ġco ld
Ġun ion
! "
ĠPr ime
it ect
i ams
ĠD en
Ġtest s
Ġhon est
Ġapp re
Ġhealth y
as hed
Ġapparent ly
Ġp air
Ġs ch
ar ks
R ead
Ġun its
Ġfl ight
Ġag encies
Ġult imately
ans ion
Ġrelig ion
F rom
Ġapp ly
ĠT wo
ĠCent ral
4 6
rast ructure
o ch
Ġpay ing
ore s
ĠT ime
Ġinn ov
i ot
Ġfund ament
Ġchang ing
Ġse a
ste in
ort ion
ĠM os
Ġtw ice
ĠL ast
Ġabsolute ly
ay er
ap ers
Ġhe at
ĠB ur
Ġdevelop ers
Ġauthor ity
Ġsc hedul
Ġsold iers
Ġv ast
ain e
Ġposs ibility
Ġapplic ations
ĠU nder
Ġclos er
Ġsk in
Ġexp ensive
Ġl osing
ĠFrancis co
rou d
Ġwrit er
ĠDist rict
os en
ĠL at
Ġcorpor ate
at ures
Ġap art
ĠS T
ip ment
Ġsee king
Ġsound s
Ġt ack
d en
ad er
Ġdevelop ing
Ġde ploy
rel ated
3 1
ĠAm azon
Ġintern al
I M
Ġsit ting
ĠP et
ist ed
Ġexper ts
I V
Ġregard ing
Ġcap acity
Ġimag ine
ĠBit coin
Ġm ut
ĠJ on
Ġfam ous
ĠCarol ina
ĠP eter
Ġad just
Ġanim al
Ġv ision
ĠJ es
Ġbeaut iful
Ġser ver
olog ies
Ġt ast
Ġar ms
ĠUS A
Ġsol ar
u nder
ĠP ublic
Ġun less
l ook
i as
E ven
Ġp il
en ced
Ġtr ail
Ġc overed
idd en
ĠP ut
Ġfl ow
Ġint ended
O f
Ġ200 4
in i
ĠM iddle
Ġsh all
Ġy ards
c oh
Ġrespons ibility
Ġpresent ed
Ġg ar
ĠB oston
ĠE gypt
Ġo dd
ĠTor onto
Ġat h
ĠC amp
Ġatt orney
st ate
N D
u zz
ĠS ol
Ġelect ions
Ġfor ms
Ġer ror
J ust
Ġconv ention
Ġcons ult
Ġ= >
Ġoccur red
Ġf ol
ov ing
Ġr id
Ġun iversity
le ts
por ary
all s
ur ation
ĠPl an
rib le
Ġf if
Ġt ight
or age
Ġsy mb
U p
ro ad
Ġsurpr ise
Ġestim ated
h and
Ġsp ort
Ġf ired
Ġstre ets
Ġbro ken
Ġgu arant
ĠA ri
L E
Ġte en
ĠJ o
ĠMed ic
ĠG al
Ġinst it
Ġrap id
Ġtro ops
anc he
Ġear n
I ON
Ġvul ner
Ġexper t
use um
p erson
ï ¿
ĠM ur
ĠCh ief
Ġveh icles
ed er
Ġhelp s
ust er
L et
Ġpro ve
end ment
ress ive
ĠC ath
Ġsc r
Ġb aby
Ġdeter mine
ĠM ass
Ġloc ated
Ġt on
g l
Ġdom in
I P
Ġfact ors
Ġpie ces
Ġspecific ally
Ġpot entially
Ġvot ed
ot y
Ġpro secut
Ġequ al
ce an
O W
ĠGu ard
ĠTh ose
Ġins p
Ġprep ared
Ġbring ing
Ġgovern ments
Ġcon clus
= "
0 1
Ġoff ering
Ġcar bon
Ġcoun cil
in ent
ĠO nce
Ġbo ost
Ġd in
ter day
Ġst ress
ĠR iver
Ġcl im
ĠSoc ial
Ġhy p
Ġcomb at
Ġpropos al
Ġp et
Ġf aster
Ġhe av
w ar
Ġst ars
0 5
Ġbro ke
Ġn ar
Ġref used
al ing
ï¿ ½
is her
Ġer a
an ish
ĠPro t
Ġrul ing
Ġb row
( )
Ġj ail
Ġse asons
Ġequ ipment
Ġmethod s
Ġrem ained
ĠAn y
ĠPar is
Ġelect ed
Ġcl in
Ġcl ot
Ġse lling
Ġconduct ed
A b
ly n
Ġinf rastructure
ĠJ ournal
ĠWh o
D o
th at
ĠVirgin ia
9 5
Ġpl enty
Ġexpress ed
ĠAustral ian
ĠC ur
Ġchalleng es
Ġorig inally
E very
our s
ph as
Ġsec ure
y r
Ġpoint ed
Ġdr am
Ġse ctor
on om
cl ass
Ġb reat
ure au
Ġr andom
ĠP lease
ed ia
n oon
i pping
F irst
ĠR em
ĠO pen
ĠLe e
ĠF ederal
Ġst ret
ĠIs land
Ġret ail
Ġgreat est
Ġtr ig
ol ved
T H
ĠF e
Ġd ream
Ġcult ural
h t
ĠPh oto
ĠD uring
Ġwere n
Ġm aster
Ġsign s
Ġyou th
Ġpercent age
Ġvot ing
Ġaffect ed
ock ing
Ġpr ime
ĠC ru
Ġt ourn
Ġcritic ism
Ġrem ove
Ġpos itions
Ġdetermin ed
Ġb ought
-------- --------
ri e
EN T
Ġsh ape
et ic
Ġweap on
ĠS ant
Ġher self
ĠS pr
Ġs ale
Ġappear ance
ĠFor ce
S ince
ash ion
, '
ĠR ub
Ġinvol ve
stand ing
Ġchem ical
ce l
Ġfil ms
Ġsignificant ly
ĠB oth
D P
Ġc as
Ph one
I G
ĠS ing
Ġfac ing
ĠM el
Ġrem aining
Ġre nt
Ġfin ish
C ont
igh ters
ĠWill iams
Ġh urt
re ens
Ġth r
Ġreg ime
Ġvide os
Ġg rew
Ġw ood
ĠSte ve
ly mp
ang ed
Ġobv iously
Ġte le
ri er
Ġrecord ed
Ġpolit icians
ut s
c ol
ro g
Ġind eed
Ġdep art
Ġv ir
ord in
Ġexperien ced
Ġredu ced
6 4
Ġpurch ase
S p
Ġ199 0
Ġcont rast
un ction
Ġarg ued
Ġ5 00
Ġcons idering
ve y
Ġsh ift
Ġpl us
Ġre venue
ĠR oad
Ġair craft
b ur
Ġsurpr ising
, [
Ġpros pect
Ġexc ited
Ġb ound
Ġpull ed
Ġ19 5
ess ions
ĠCol or
Ġhand le
g ment
Ġsupport ing
ĠJack son
Ġwe aring
Ġmin imum
Ġh un
l ife
Ġpro ced
Ġacc ident
p et
Ġmod e
T V
ĠF ree
ens ions
Ġm arg
S S
ĠR ad
Ġmin ute
m m
Ġbas ically
od d
Ġobs erv
Ġeven ing
Ġag ent
Ġa st
Ġopportun ities
Ġcon cent
Ġs witch
Ġlead s
ow nt
Ġsub s
Ġappre ci
Ġafter noon
Ġemer gency
Ġident ify
ĠR o
C L
Ġtre ated
ĠH ol
Ġsp ring
Ġa id
Ġdiffere nces
ab ilities
tern al
Ġpriv acy
ĠB ook
Ġbel ong
Ġt ur
Ġexpl os
Ġdis s
P e
Ġt act
Ġmot iv
h ab
ĠI N
he red
4 2
app ing
og ue
Ġse at
ĠChar l
Ġconsum ers
Ġlist en
Ġcomple ted
P R
ok ing
Ġend s
Ġcont ains
Ġser iously
ar p
Ġsu it
ru ption
Ġopp osed
Ġconst ruct
os ite
ĠP ac
Ġm ort
ĠH aw
Ġwide ly
ĠM att
y th
ed s
ob e
Ġhop es
s en
Ġfact or
Ġpan el
coh ol
Ġt urning
Ġgl ass
Ġvis ual
ĠCons erv
ĠS aud
Ġliber al
Ġlot s
Ġpass ing
ll er
A pp
Ġcomb ined
Ġ200 3
Ġp owers
Ġtyp ically
Ġ //
om pl
W ell
Ġtalk ed
or al
H is
m osp
c are
ĠD aily
ra wn
Ð ¸
ĠP ower
Ġapp s
Ġfl at
Ġadv ance
I nd
Ġdis miss
ribut ed
ĠSp ace
Ġp ages
Ġtrou ble
Ġpack age
Ġre action
ĠO lymp
Ġdisc l
Ġdef ault
Ġattempt s
Ġenem y
Ġz one
An other
Ġm al
as p
Ġstrugg le
ive red
Ġpl ants
Ġ200 1
ap ter
ac he
] ,
Ġc art
Ġpro ceed
ra ud
t op
Ġwrit es
it a
Ġb urn
ĠG et
P D
am m
z er
id el
ĠSh ow
Ġref erence
ĠN AS
Ġqu iet
Ġb odies
ff ee
Ġent ertain
Ġt un
Ġe lement
resp ond
A m
Ġthan k
ĠPro ject
Ġ id
Ġqu ant
Ġh ol
Ġrep orters
ĠB BC
ne ll
pl om
Ġexpl o
Ġcoll abor
es ters
Ġmat ters
Ġstand s
Ġcopy right
Ġval id
Ġinst ruct
U T
Ġcal cul
Ġup gr
ĠN ov
ok en
k et
Ġfr ust
Ġappro ved
Ġden ied
st s
Ġdisapp oint
Ġcre ation
ap ed
Ġrespond ed
Ġsat isf
Ġtrad ition
Ġdist ance
Ġse m
ĠM em
ĠT oday
Ġel imin
w rit
l ines
f ree
uc ks
Ġbroad cast
Ġset s
ain ts
D e
4 3
ĠS qu
ĠR el
I I
Ġprom pt
al ed
se x
Ġfl ag
Ġcap able
ani el
Ġre new
est ival
Ġem p
Ġappro x
Ġst orm
Ġs ac
at o
ĠSy stem
raz y
ed d
Ġopt im
Ġgr ab
Ġconf ident
Ġun able
p ass
m ond
Ġp itch
ĠY et
Ġtrans ition
Ġdecl ared
Ġinstit utions
Ġpers pective
ul ations
ĠDirect or
Ġmov ies
Ġnum erous
ĠWill iam
Ġcapt ion
ĠMed ia
Ġcl oud
, âĢĻ
ab led
ell y
Ġcr imes
Ġpict ures
as tern
Ġexperien ces
res ents
r ant
ĠP enn
Ġreported ly
Ġhttp s
is ters
il it
Ġb ull
Ġspl it
il ty
Ġconf idence
ĠF ollow
ĠAfghan istan
ĠS cience
Ġco ast
Ġse vere
Ġg iant
Ġad vert
em ploy
Ġon going
ĠPak istan
un te
Ġg ra
Ġc raft
Ġfac es
amp ion
Ġfor get
Ġmar ried
Ġm and
u ous
r id
Ġtechn ical
k er
Ġnewsp aper
ĠLab our
is hes
8 8
Ġadv ice
us iness
Ġsuff ered
Ġf ly
Ġinj ured
Ġp roud
Ġexpl ains
Ġord ered
Ġl oved
ĠT ra
du le
Ġcircum st
O ver
Ġshould n
Ġsubst ant
u ations
ĠTur key
Ġfor g
M A
Ġrout e
ĠW ood
Ġwe ather
ĠAnd rew
Ġupd ates
Ġreport ing
ĠW al
c alled
Ġco oper
Ġthough ts
ĠGr and
Ġad mitted
R ep
Ġa uth
Ġacc ompl
re land
Ġev al
ĠH uman
ev in
6 6
Ġmess ages
Ġconnect ed
ound ed
ĠR on
Ġbuild ings
h ost
ion ally
Ġfind ings
Ġdecl ined
az a
Ġdel ay
Ġedit or
Ġappropri ate
ab in
Ġarch itect
O ther
Ġi Phone
0 9
Ġviol ent
R es
Ġro t
Ġle aves
Ġdel ivered
D uring
t ion
Ġgun s
c an
Ġpick ed
ad ow
Ġstate ments
raz il
ĠOh io
S e
ĠA T
Ġour selves
Ġpublic ly
Ġf ish
Ġd ial
ac ter
ĠS ov
Ġconf irm
Ġcan n
Ġte ch
ĠMuslim s
Ġlawy er
Ġar med
Ġex cell
Ã ¤
4 1
Ġpract ices
Ġg ather
ĠA v
Ġmor al
Ġag ents
Ġed ge
Ġf illed
Ġterror ist
ans as
ess or
c os
ĠChrist mas
ĠSc ot
Ġr ail
Ġsub sequ
Ġem ails
ov es
Ġem phas
Ġpat ient
ang ers
Ġobject s
Ġpr in
ner gy
Ġwalk ing
Ġper man
ĠB et
ĠUkrain e
ent ure
ell ow
Ġreal ize
Ġt ree
ĠM a
M any
Ġtal ent
Ġphilos oph
Ġca uses
ul s
Ġtrans form
or se
Ġ198 0
Ġexerc ise
ĠPh ot
Ġread ers
ĠMich igan
ĠB at
Ġleg it
Ġactiv ists
Ã Ń
Ġcent re
o oth
Ġs ad
ill ance
L S
Ġarg ue
Ġd ynam
i at
O D
ĠRe v
Ġv an
Ġeffect ively
ĠSw ed
Q u
Ĥ ¬
end a
l ong
c ons
Ġexp ansion
Ġinit ially
Americ an
d ate
Y es
ord ers
ar l
Ġsh op
Ġpo ol
r ich
our ney
ĠG en
Ġb ond
ĠS her
ar n
ĠF er
ĠI D
Ġsecret ary
ĠB ack
ill y
as ure
Ġdeb ut
7 8
ĠV ict
ĠSe e
Ġwe ar
0 4
Ġart ist
ĠS ign
al a
Ġr ain
Ġth inks
T ube
Ġlink ed
u y
m ates
ĠM ount
Ġmiss ed
ĠTe chn
ĠD ou
Ġcr ack
ar ters
Ġdes ire
Ġmot or
ou ston
Ġlab el
Ġinj uries
Al though
ĠSt r
Ġmag azine
Ġs ession
ĠH y
Ġgovern or
ĠL in
Ġexpl an
ad or
Ġquarter back
ĠJ ul
Ġalleg ations
ĠS um
ag ers
Ġincre ases
Ġinc or
Ġwar ned
g ia
or ry
Ġexam ples
Ġess entially
F ollow
ĠRe ad
ĠSt an
ĠW ork
Ġnecess arily
T A
Ġfact s
Ñ Ĥ
ĠG M
Ġplan e
Ġhe ll
Ġ3 6
O h
Ġn ations
Ġab andon
Ġfac ed
Ġdo ctor
ĠL ife
Ġne ither
Ġdist ribution
ĠBo ard
ic ing
Ġdri vers
et te
Ġat mosp
Ġcl ient
Ġaccept ed
ER S
Ġperform ed
Ġrep resents
Ġs ke
Ġvar i
am in
Ġp ra
Ġrad ical
en ger
ĠI reland
ed y
d ef
Ġdi plom
Ġb are
Ġm ir
Ġfollow s
ĠR od
k ay
Ġp ure
g ent
Ġfl ood
r um
Ġannounce ment
Ġadv anced
ĠP rem
Ġsu c
ĠSec ond
ĠC NN
ĠD an
C an
Ġ ing
S pe
Ġfr anch
ĠI ll
en a
ĠBar ack
Ġmaterial s
Ġrem ark
Ġschedul ed
ĠSe attle
ĠJew s
i est
M ost
Ġnear by
ĠR E
Ġfl o
A dd
Ġdec re
ĠK im
Ġlist ed
Ġs am
T S
Ġst orage
Ġrestaur ant
Ġwar m
Ġmy ster
Ġa f
us al
Ġoff ense
Ġmov es
l aw
ĠIS IS
ĠBl ue
Ġt rib
ĠC ub
Ġwith d
ir ty
Ġst ood
Ġgu ilty
ot ic
Ġevery body
it ors
Ġbeg ins
Ġch art
w ater
Ġal t
Ġp hen
ĠH en
Ġ200 2
Ġfor t
Ġadd s
Ġcomb ination
d is
Ġsurpr ised
Ġin put
Ġlaws uit
ĠRom ney
Ġsong s
Ġplay off
Ġyes terday
The n
Ġres olution
ri p
ab b
Ġs ought
Ġexist ence
Ġsa v
ĠKore an
es ome
Ġappl ied
Ġr ide
Ġdat ab
Ġnet works
ac le
ird s
Ġsh ots
Ġsub scrib
ĠA ff
Ġthreat s
ĠDe v
Ġdem ocracy
ĠCol umb
Ġis land
w ord
Ġtot ally
Ġconf ig
semb ly
Ġj oint
Ġsp ons
Ġtemper ature
Ġen h
7 7
Ġimpro ved
ĠOn ly
Ġinvest ors
Ġre in
Ġpus hed
ĠV ol
Ġout put
ocrat ic
ĠWe ek
ĠT O
st ood
Ġf ill
w hel
ath an
Ġdiscuss ed
Ġcreat ive
st r
Ġcor respond
ĠW he
Ġ3 00
Ġconsequ ences
Ġb oss
Ġbr ings
ic ian
ĠE lect
Ġ3 3
ĠIt s
Ġcont est
Ġcolle agues
Ġsqu are
Ġhistor ical
Ġl ibrary
ide o
om in
Ġrough ly
O b
Ġr ising
ic ious
Ġent ered
ĠDe velop
Ġmanufact ure
olly wood
ĠSaud i
Ġhead s
Ġent ry
Ġres c
Ġconsist ent
Ġath let
Ġpar liament
Ġres ident
Ġany where
ĠL ake
Ġart icles
ĠD iv
Ġheav ily
Ġn ative
Ġyoung er
Ġfair ly
Ġfun ctions
Ġbehav i
du c
Ġro w
Ġev olution
Ġsc ored
Ġb ike
Ġl ie
Ġal cohol
Ġboy s
ĠAn other
Ġunlike ly
ĠB razil
ĠCl ub
ok ed
on na
Ġexpress ion
I F
Ġn av
Ġb ot
iss ions
ĠH ist
P U
iqu es
Ġsuc ceed
b orn
Ġpl ot
ĠAs ia
Ġl inks
ĠB ob
f ortunately
Ġstore s
ĠS ports
Ġwar ning
Ġmet al
Ġpro hib
ĠB oy
al ty
Ġbr ight
Ġdeath s
Ġbut ton
m es
6 8
Ġk it
Ġr ally
: :
ere nces
Ġimport ance
Ġrece iving
Ġregul ations
Ġsymb ol
Ġprot ests
ard en
ĠM s
Ã ³
Ġ3 8
ĠD C
z ona
ĠW alk
etro it
es c
i i
Ġstr ing
S ee
Ġclass ic
Ġbre aking
w est
O C
Ġfac ility
Ġdef ined
Ġclass es
het ic
Ġvers ions
Ġbu ying
Ġcur rency
ĠR ights
F P
Ġto w
Ġalleged ly
ĠE ach
Ġrepl aced
ĠL ib
ĠMay be
ĠN BA
Ġman age
ol ve
Ġsh if
st yle
M an
Ġh at
Ġdo ctors
Ġtarg ets
Ġsome what
Ġmarket ing
Ġc ere
Ġsy m
Ġfew er
Ġhouse hold
om a
Ġv ice
p o
Ġl ock
p ret
Ġem pt
Ġwas te
ĠS ky
Ġconsum er
ĠE ric
ic an
Ġl augh
Ġbl ow
it tle
Ġad m
s hip
Ġf raud
Ġhop ing
Ġess ential
P ol
0 8
Ġreturn s
omet imes
Ġcamp us
Ġopp osite
Ġhard ware
al ian
Ġprom ise
Ġact s
ĠF ar
Ġhold s
ĠR am
op y
Ġrele vant
Ġfav our
Ġint ention
Ġb on
Ġclose ly
ĠG ames
Ġsy n
t witter
ag an
Ġeff icient
I R
Ġse es
5 7
ĠC IA
Ġmom ents
Ġg rown
Ġindust rial
Ġr um
Ġsch ol
Ġbu g
G et
Ġd ownt
Ġill ust
ĠE r
Ã ¼
ĠIm age
and al
g reg
Ġch ain
Ġcustom er
E n
Ã ¶
Ġparticip ants
in em
Ġw ave
Ġhard er
el lect
ĠH ouston
Ġmot ion
ĠColor ado
n ame
Ġto m
Ġacknow led
Ġpre gn
Ġadult s
Ġsuff ering
n ic
ch o
ĠC ard
Ġimmedi ate
ĠG ar
ter ing
Ġemot ional
Ġcy cle
ut ch
Ġs ick
ĠAn n
ĠYou Tube
ĠH el
Ġmechan ism
erv es
Ġs now
ul ous
N C
Ġopp onent
ock et
Ġcircumst ances
Ġsqu ad
ĠY ear
olog ist
ate ll
Ġh ur
rom e
Ġm ine
Ġvol unte
Ġc ert
ĠBro ok
ĠPalestin ian
Ġauth ors
ke l
Ġf ashion
Ġis ol
ĠSov iet
oc key
Ġ4 8
ot al
ĠO ld
Ġrefer red
ĠVal ley
Ġdetail ed
ĠW ik
Ġhot el
Ġan cient
c hen
â Ī
ob b
Ġman ner
Ġsh aring
ĠD ie
Ġtourn ament
Ġear ned
Ġz ero
Ġfundament al
Ġact ing
Ġext ent
Ġkind s
Ġ4 9
Ġown ed
ĠR ight
ĠD i
pr int
Ġreg ional
Don ald
Ġme at
Ġdescrib e
Ġter min
f riend
Ġcarry ing
Ġfor med
Ġtr ick
Ġche ap
b ar
ef ully
ĠJes us
0 3
Ġfeat ured
Ġun us
m l
c hers
Ġrelationship s
cer tain
Ġart ists
n am
Ġexcell ent
' ,
Ġt iny
Ġgu ide
f oot
C om
Ġ3 7
Ġb ag
Ġcompet itive
ĠA ut
Ġl iqu
Ġfrequ ently
Ġdiv ision
Ġdec line
Ġsurve illance
Ġp ip
ĠW ild
ens us
Ġs and
u a
ĠPut in
ay ers
Ġdep th
p ress
ig er
Ġbat t
ĠO F
Ġw ins
Ġinf l
Ġe gg
u ated
ĠG ra
Ġc razy
ĠDav is
Ġm outh
Ġem br
ĠCath olic
0 7
ĠW atch
Ġcomfort able
Ġint ent
ĠSt and
Ġsent ence
Ġalong side
ĠE ll
Ġinst ru
Ġsign ing
Ġrepeated ly
Ġup coming
Ġsche dule
h us
an es
ĠW ay
ĠC y
ĠSu pp
we ight
Ġcommit ment
Ġimm igrants
Ġattempt ed
Ġpus hing
Ġco ffee
Ġreal ized
Ġpl ed
Ġl ies
or a
Ġcol umn
Ġmed ic
v a
Ġstr ange
lud ing
am ily
< /
Des pite
0 6
ĠM ot
Ġrep ut
Ġcontrovers ial
P er
Ġupd ated
u able
Ġwalk ed
ĠL ong
Ġstru ck
r ison
ĠH ome
Ġca using
ord an
Ġded icated
ĠE conom
L ike
x y
ĠI P
aw a
Ġdeep ly
k o
ri ve
iz z
Ġt ort
oc ation
Ġch annel
Ġpost s
p an
g ame
Ġw ire
Ġsu icide
Ġord ers
um ber
Ġproper ties
ĠChar les
Ġtarget ed
ici ency
Ġstre am
ĠC le
ce ived
Ġinsp ired
O RE
Ġs ister
Ġserv ing
T wo
az i
Ġchair man
iam i
Pe ople
ĠW ars
ĠE nergy
Ġr ing
b el
ad el
ĠYou ng
Ġvirt ual
az e
y ou
b urg
Ġ197 0
ĠCru z
5 9
Ġcr ash
Ġag enda
Ġfl u
v in
Ġtrans p
ĠN Y
ograph ic
Ġprotect ed
Ġterror ism
Ġus ual
Ġliter ally
ĠAri zona
t a
Ġnews let
Ġj ourney
Ġstud io
Ġwat ched
av or
ren ce
Ġobs erved
ĠV an
Ġappro val
Ġass ets
Ġpro te
Ġmain stream
Ġun iverse
ĠAg ain
all as
iven ess
ĠF il
Ġh all
Ġris ks
Ġsurround ing
Ġover whel
Ġw ake
Ġcon gress
ĠDef ense
ĠT op
ĠD own
ĠM en
b oy
Ġse lection
Ġur ban
Ġne ut
Ġsim pl
Ġlat ter
Ġf asc
ĠEn ter
Ġprec ise
or ation
Ġvol ume
ĠS ar
Ġra pe
Ġ3 4
Ġg od
x ual
im ents
Ġknow ing
Ġcommunic ation
so le
ph y
Ġdeal ing
Ġrem ote
ĠP R
0 2
Ġex hib
Ġopp onents
Ġk ing
Ġun known
m un
Ġsubs id
Ġwin ter
Ġfol ks
5 8
Ñ ģ
ĠB est
Ġbat tery
Ġform at
i xt
g or
Ġfor th
I nt
M ay
Ġprom ised
ĠF ort
Ġas ide
Ġab ortion
ĠJ ava
Ġdes k
ĠM ax
Ġal ive
Ġsk y
Ġpass ion
Ġd u
Ġw al
ĠL ord
Ġnot iced
u gh
ĠStep hen
O r
i pl
Ġexpl ore
Ġun employ
et her
D S
Ġdisc over
ĠT al
Ġn arr
Ġbl ame
f ire
ult ure
6 7
ĠD etroit
i ro
Ġsh o
ĠWil son
Ġs ending
Ġtest ed
Ġg ap
Ġhe ight
Ġdestroy ed
Ġteac hers
Ġapprox imately
ĠJ r
Ġrefuge es
Ġmat ches
Ġrequire ments
ĠK evin
ĠT it
w oman
Ġn orthern
Ġd iet
r ors
ab is
Ġexc iting
Ġe ating
ĠPol it
Ġpro of
Ġloc ations
onym ous
ĠW at
Ġinvol ving
Ġdefe at
F r
ĠIn s
ens ity
ing u
Ð ½
Ġsk ill
Ġp al
L A
Ġnar row
st one
og an
Ġwel come
ĠH ollywood
al le
ĠIn f
Ġprot esters
Ġext ended
Ġw est
Ġbas ket
ang es
at i
Ġad apt
Ġmax imum
r ations
Ġfem in
Ġg ang
ĠBr ad
Ġphen omen
Ġterrit ory
Ġre ward
Ġlic ense
Ġany way
l v
Ġimp ressive
Ġattack ed
Ġfix ed
Ġmist ake
ar ry
Ġproper ly
Ġshe l
p ost
Ġmere ly
ac c
ap se
Ġmod er
Ġsust ain
Ġst im
Ġnom ine
Ġswe et
Ġret ire
ĠAg ency
a o
Ġprom ote
ger y
ig ure
Ġslow ly
R el
Ġth read
ĠC ast
Ġteac her
ĠF ord
d ro
ĠP an
ĠCh ild
Ġf uck
ĠSoc iety
ĠM iller
Ġw id
ay lor
ĠAr ch
Ġcon ver
Ġs ample
Ġrequ ests
Ġch ose
Ġsudden ly
Ġob lig
ĠM ic
ĠL u
ack ing
l ies
ĠAd minist
Ġde als
Ġselect ed
it arian
g ender
Ġthem e
Ġput s
Ġd ry
Ġrecogn ize
Ġdis ag
ĠNAS A
Ñ Ģ
Ġwor ried
Ġtyp ical
Ġass ume
Ġobtain ed
Ġdi agn
ĠD NA
ig ation
ow ered
ĠW omen
Ġw age
um s
Ġsupport s
au g
Ġunder stood
Ġfe es
Ġit em
Ġhon or
Ġfranch ise
% )
Ġ7 5
ĠS C
Ġtop ic
Ġso le
as ks
ĠP S
Ġph ase
ins on
ig g
Ġfac ilities
Ġe ast
Ġall ies
ver ty
Ġstrong ly
p ool
ax y
9 8
Ġsche me
Ġcompar ison
os is
Ġlim its
red it
Ġreg ions
ĠNet work
ĠC amer
ĠIt aly
Ġconf ront
Ġcrit ics
Ġequ ival
Ġpo verty
V ER
Ġâ Ī
Ġarg uments
Ġlik es
Ġcontro lled
Ġresist ance
ce ler
ra id
Ġcommunic ations
Ġconst ant
Ġcond em
Ġr ub
Ġp ed
Ġfall ing
âĢĻ .
as er
a ire
ĠSp anish
ĠL and
Ġsome how
Ġjournal ists
Ġperson ally
Ġh its
ĠF our
ar ity
ĠD am
Ġtr uck
ĠD un
Ġvill age
ĠGeor gia
Ġesc ape
Ġd ress
uild ing
al o
Ġdr ag
Ġexp osed
GB T
ĠO k
w an
Ġstrong er
Ġb unch
ĠCl ass
Ġf lex
Ġstret ch
ĠCar l
c ers
Ġin qu
Ġwin ner
5 6
T e
Ġem issions
ow a
Ġhar ass
ort ed
Ġmeet ings
Ġb id
p es
a un
ur a
Ġencour age
ast s
Ġch ampion
Ġs outhern
." [
ĠD aniel
pect ed
Ġev il
ob ile
c ow
ĠN ations
Ġdefin ition
ĠM iami
ĠN HL
J ohn
Ġsome where
Ġpurp oses
Ġcomp rom
z ens
ĠN ight
Ġcut ting
ĠAs ian
l ist
Ġf old
Ġrul ed
ĠIr ish
m o
Ġdirect ed
Ġpun ish
c ript
Ġempt y
Ġfield s
Ġend ing
Ġan x
r ary
ĠJer sey
or ic
Ġs oul
Ġamount s
Ġ Î
end ers
rim ination
Ġprof it
Ġcol on
se a
int end
Ġint ellect
Ġdec ent
ĠC am
Ġdec k
ĠAtt orney
Ġ icon
Ġclaim ing
Ġpar am
h an
ret t
ĠDes pite
Ġoffic ially
ci ples
Ġdes per
Ġch osen
5 3
Ġde leg
Ġide al
Ġreason able
Ġtre es
Ġd rawn
ĠL ove
Ġemploy ee
Ġbe ar
ĠComp any
ĠServ ices
Ġdri ven
Ġprim arily
Ġfind s
ot ten
ĠM S
Ġconst it
Ġpoll s
ad s
Ġfif th
if orm
ĠK n
==== ====
ĠD ar
Ġf ighters
v y
Pol ice
Ġlet ters
Ġgood s
ld er
om ing
Ġt ies
Ġdist inct
ĠTh ank
Ġdog s
Ġre tain
Ġaspect s
Ġgot ten
ĠL abor
ic er
ir ms
c r
C A
Ġthreat ened
Ġu pper
ll s
ĠTh ough
ĠB ell
in er
Ġreject ed
st ers
Ġdevelop er
Ġenc oun
Ġp ic
Ġelectric ity
ĠW ater
Ġeng age
ow ed
nes ota
ĠScot land
Ġcapt ured
Ġext ensive
Ġsol utions
Ġsome body
5 2
ep ing
Ġconst antly
Ġperfect ly
E W
Ġp od
m od
is an
ĠTur k
Ġsp in
ind ing
Ġreg ularly
Ġpay ment
un ning
ĠRe al
Ġpay ments
An y
Ġad mit
Ġdatab ase
e z
Ġb le
Ġtrad ing
ĠR og
ĠE nd
Ġhous es
Ġben ch
Ġtechn ologies
Ġex ists
Ġresult ing
Ġcont em
Ġcour ts
Ġansw ers
Ġcho ices
ick en
ĠSe a
C S
ĠL ew
O nce
Ġsign al
Ġsit uations
Ġb oot
ĠV iew
Ġm urd
Ġact or
Ġprof ile
s m
ĠG all
Ġvac c
Ġr ival
Ġworld wide
C E
ĠH un
ĠCh ampionship
ĠC at
ĠD ark
3 00
Ġse ats
Ġcomp onents
Ġs ight
ĠAd am
ĠW here
Ġelse where
U R
Ġcontribut ed
Ġfound er
Ġf lying
hip s
Ġap artment
Ġinc l
Ġnarr ative
M P
Ġmix ed
ĠC D
Ġmay or
ĠB as
Ġestim ates
ot es
Ġkeep s
ĠVict or
ear ing
Ġout come
ĠW in
reg on
as ters
Ġno body
Ġcoal ition
Ġfeed back
ĠMo ore
r as
Ġr ig
Ġany more
im p
f ast
Ġatmosp here
ĠO S
Ġaccur ate
Ġcru cial
ĠD allas
D r
ost er
Ġconclud ed
O ff
ĠIt alian
Ġt ank
ĠAc adem
Ġbase ball
l ock
Ġmach ines
ĠJ ordan
Ġcons cious
ĠB rian
Ġ3 9
Ġincred ibly
Ġcateg ory
em en
ĠS k
Ġbre w
Ġrec overy
in ations
st ar
if er
Ġbill s
ack ed
Ġincred ible
Al so
Ġregist ered
Ġra ising
anche ster
il arly
Ġdem ands
Ġcon ven
ch ain
Ġemploy ment
T oday
Ġprov ince
Ġcontrol s
Ġbit coin
Ġenem ies
Ġent hus
Ġn ut
ian a
Ġcontin uing
ĠE p
ĠS outhern
ap es
the re
Ġter rible
Ġex cess
5 4
b al
ĠC ivil
â ĸ
ĠOr gan
Ġgener ate
ĠL ight
Ġun p
Ġdoll ar
Ġtick et
Ġaw esome
Ġg ro
Ġwe ird
ĠG i
ĠB ru
Ġim per
Ġexplan ation
ĠS n
Ġman ip
Ġpark ing
r ates
ĠH ot
ĠA uthor
Ġt all
Ġt ied
Ġdo zen
ĠB owl
Ġthe rap
r age
Ġha bit
Ġst uck
ĠSte ven
Ġret urning
ĠCon f
ph ia
ĠT est
Ġst ead
M S
Ġrout ine
Ġang ry
ag ram
Ġconclus ion
l ers
Ġcl ients
Ġwrit ers
Ġlo an
Ġmy th
Ġpl astic
Ġinform ed
on ic
Ġpain t
Ġrepresent ed
Ġnew ly
Ġdrink ing
Ġprov ed
ĠSp ain
ĠConst itution
Ġmag ic
ĠT w
Ġassist ant
rap h
Ġcount y
m ont
Ġgr anted
Ġs atell
Ġcompl aint
Ġorgan ized
ĠJose ph
ĠU t
ĠC are
ess ed
Ġaggress ive
al i
Ġeng aged
Ġk il
Ġinn oc
Ġro ster
in ity
Ġcomp ens
y e
isc ons
Ġ( $
Ġscen es
adel phia
Ġinf ect
Ġinter pret
ĠDis ney
Ġsuccess fully
Ġaud io
9 2
Ġcompl icated
er a
Ġrep orter
ĠPro gram
iscons in
Ġcapt ure
ar on
Ġext ract
Ġcons pir
im a
ĠA R
ĠCont in
it ar
Ġtechn iques
es y
Ġr us
Ġprogram ming
b a
Ġlaw makers
S ec
ĠTh anks
isc al
ri a
B ecause
Ġg aming
E d
Ġrec ording
ĠK urd
u an
Ġ iron
Ġ199 9
ĠDe ad
re ams
Ġaim ed
Ġch ances
ĠRom an
gor ith
ĠE duc
Ġpen alty
Ġassist ance
Ġorig in
Ġconsum ption
Ġw estern
r ating
Ġh idden
ĠI d
ific ations
Ġbl ocks
ĠM ars
k ed
Ġpil ot
act ions
Ġhe l
ĠB alt
ĠA venue
In st
ann y
o z
ĠSen ator
Ġind ex
Ġext rem
Ġr ating
se ll
Ġsh ares
Ġdeg rees
Ġc up
Ġatt ended
Ġt aught
Ġph r
re te
Ġad s
Ġest ate
ĠPac ific
Ġautom atically
Ġacadem ic
Ġveter an
Ġr u
H S
G etty
it als
Ġsol ve
Ġacc omp
he nt
Ġgr ant
% .
Ġoper ate
Ġinst alled
Ġreput ation
Ġteach ing
Ġperman ent
ĠZ eal
ĠFore ign
Ġsurv ive
u ine
ĠF re
Ð¾ Ð
ĠT em
ĠB usiness
Ġp in
Ġant icip
Ġ4 2
Ġro ot
re p
ĠO per
Ġb om
ĠA h
Ġmon it
Ġmark ed
ĠN BC
Ġsh it
a ed
Ġm ail
ur b
Ġregard less
Ġover se
Ġ6 4
Ġ1 50
ĠMin nesota
ĠSpe cial
ul es
Ġvulner able
Ġrac ial
Ġcomp re
Ġlawy ers
9 7
5 1
ind er
ĠN ick
ĠT urn
ĠSt ill
Ġvis ited
ĠO s
b ro
Ġval uable
ib ilities
Ġen able
ĠV iet
Ġcollect ed
Ġins pir
ever al
8 6
et ary
Ġfun ny
Ġtit les
Ġadop ted
ĠSer ies
Ġp ace
mon th
Ġtast e
Ġsym pt
ĠPar liament
as hes
ĠC ross
Ġsuff icient
Ġf ake
Ġdep ending
Ġcom ic
Ġel ite
Ġch at
Ġne uro
Ġprom inent
Ġenjoy ed
Ġd ict
Ġb es
f rom
the w
id ency
Ġpriv ile
Ġdownt own
ĠN ation
Ġport ion
Ġ âĢĻ
Ġdef ence
Ġwar ming
Ġd im
Ġbr ut
Ġp ounds
Ġmain ly
Ġaf raid
Ġun certain
ab ama
ol t
Ġequival ent
ĠL GBT
ã Ģ
w orld
Ġnegoti ations
9 6
up id
r ific
ĠC oll
pr ise
Ġmed ium
atur ally
Ġadv is
Ġperson nel
Ġprin ciples
Ġwork er
E A
Ġsp r
Ġch ampionship
ĠMos cow
M L
ĠIn vest
Ġext ension
Ġc able
ĠL ook
or ne
Ġdescrib es
ĠA L
m al
Ġg all
c les
qu arters
Ġve get
Ġph ones
th is
Ġpattern s
Ġe lev
ĠE astern
Ġdis aster
Ġint ense
R ec
Ġexpl icit
Ġent it
Ġtrou b
Ġresult ed
Ġsu p
Ġminor ity
Ġf ought
Ġpl ug
ĠJ osh
ĠI T
Ġemer ged
ĠT ake
Ġap olog
Ġ4 00
ry pt
ĠR ay
Ġtrack s
ob s
Ġposs ession
ĠG er
az z
ĠGree k
Ġbrow ser
ĠAn th
idel ines
Ġcompet e
ĠT ony
Ġth in
re f
ur rent
Ġc ited
ĠA li
Ġbus y
Ġhad n
Ġexp osure
Ġsur gery
âĢĻ ,
t es
Ġpass es
ĠN orthern
f all
man n
Ġprocess es
ĠK elly
Ġy ield
Ġunus ual
ĠB ull
Ġin ev
og en
c ar
Ġf irms
te xt
Ġcry pt
ant ic
y stem
Ġsan ctions
ĠAm endment
Ġgener ated
m aking
l og
d a
act ive
Ġd uty
Ġrec ru
i el
Ġdisc ipl
ĠI owa
P r
ic ate
Ġexpect ations
am ber
ĠCo ast
ĠO regon
ĠPol icy
Ġrare ly
Ġcor ruption
Ġt or
Ġthous and
v iously
ist ent
ent h
Ġrec ip
ĠBe fore
Ġprop ag
Ġfeel ings
ĠLin ux
or ough
Ġevery where
il er
Ġstr ict
ĠT aylor
he rent
ĠR ick
Ġst ations
Ġengine ering
Ġen orm
Ġvis ible
Ġag ric
Ġshort ly
ath y
ĠZeal and
ĠV is
Ġcamer as
Ġimplement ation
g un
il ton
ĠN avy
Ġ 00
Ġsy nt
B O
ĠK ent
ĠH T
Ġtax p
s he
ĠM u
Ġper mission
ĠS af
Ġcontract s
M ean
ĠV eg
e lect
ĠF ood
Ġun w
n i
Ġscen ario
Ġt ag
+ +
c us
ĠW isconsin
L C
Ġcomput ers
Ġparticip ate
> >
sc ape
Ġco ordin
if ies
Ġloss es
ĠPhil adelphia
Ġth ick
Ġbl ind
Ġun com
Ġh o
ĠH as
Ġbeh alf
og ether
re ll
Ġl oud
ĠAs h
Ġfoot age
Ġv en
Ġfin ance
Ġcy ber
Ġac celer
c a
f ound
ĠR et
j a
N e
f ront
ink ing
wh o
ĠP ay
Ġsa ved
Ġaff ili
Ġfe e
Ġair port
Ġadvert ising
ĠC all
Ġc rop
ĠHen ry
ig en
AT E
Ġsh ock
Ġprior ity
M ar
im ore
et ime
Ġprinc iple
ĠGl obal
ĠF ed
ask a
7 6
Ġdo zens
Ġto ler
Ġm el
C ol
Ġg ained
ĠM anchester
Ġh ole
Ġestablish ment
Ġhistor ic
ĠF oot
ĠJ ac
ose xual
Ġp ump
ĠKing dom
Ġla id
as ion
am i
Ġclub s
Ġob st
Ġrel ief
Ġcoun sel
et ts
Ġfound ed
ĠO l
ĠC ome
Ġinter face
Ġal gorith
Ġform al
U s
Ġgen uine
ĠS P
________ ________
% ,
Ġr iver
Ġw ing
at hered
iz on
Ġlight s
um in
Ġf ault
ĠS now
Ġpl ate
el and
Ġst ab
Ġcreat es
ĠF red
u er
ĠR and
Ġindic ate
p read
Ġ19 60
ĠL ive
b ell
Ġexcept ion
ĠO ak
oun ced
Ġjournal ist
Ġdo ors
Ġ4 4
um er
Ġphot ograph
Ġwonder ful
Ġsc oring
Ġlik ed
ĠM ajor
Ġmag n
os a
Be fore
ĠAdminist ration
ĠMc G
Ġwithd raw
) )
we et
ĠG reg
ĠE mp
Ġb orrow
u ce
r ative
Ġneut ral
Ġrid ic
l an
ides pread
Ġar ray
ĠM oh
ĠTh us
ĠA D
Ġst adium
Ġphilosoph y
Ġg onna
Ġbasket ball
ĠL o
Ġcont aining
Ġstri kes
Ġleg end
Ġfound ation
Ġb ath
ĠH om
ĠAl abama
j o
Ġsp ark
Ġ5 5
Ġdraw ing
Ġed ition
ou red
prof it
Ġfarm ers
Ġprodu cer
Ġbelief s
Ġstrugg ling
Ġnomine e
Ġun iform
Ġst able
Ġbr idge
bur gh
an ing
ĠPrem ier
Ġneigh b
ĠK ir
Ġrecogn ized
Ġre ly
ĠR oyal
U L
ĠKe y
ĠDevelop ment
Ġent ering
ili pp
a us
op her
ĠA S
ĠHar ry
Ġto x
ĠF und
Ġar range
Ġhead ed
ar lier
Ġdin ner
Ġprofess ion
sy lv
Ġcann abis
em an
Ġback ed
int erest
u per
c ription
ĠAr m
Ġj u
Ġdeli ber
Ġlangu ages
Ġredu ction
Ġmanufact uring
Ġdest ruction
Ġwebs ites
ol is
Ġsh arp
Mean while
Ġh ang
ĠN ote
ĠTh ree
f r
Ġban ned
Ġro les
Ġcomp onent
AT O
te en
Ġh ired
Ġf inger
h y
ul ating
Ġwhe el
Ġ6 5
ĠCent re
rou s
Ġ %
rat ors
C o
Ġstruct ures
le te
R S
Ġ199 8
Ġinc ent
ĠMark et
epend ent
Ġch a
Ġmove ments
ĠO tt
Ġinterview s
ĠJ ason
ĠC O
ĠE SP
aw ay
H A
Ġconv icted
ĠH ard
m ate
ĠH it
ĠB ry
M e
ĠM id
Ġrestrict ions
a a
Ġa ver
ĠP oint
Ġfl aw
Ġpro port
Ġg ift
Ġo cean
Ġ4 7
Ġpro ven
Th ose
Ġup set
ĠR ose
ach us
Ġconv in
ab s
ĠDie go
Ġbare ly
l ad
ĠRe view
Ġachie ved
ĠV R
ĠRep ort
Ġwall s
Ġepis odes
P resident
Ġfore ver
Ġdeli very
E P
ĠN ob
ach ing
Ġprodu cing
ĠAcadem y
ĠAtlant a
Ġre n
sylv ania
t hen
c ling
Ġbr anch
ĠMcC ain
Ġlist ening
p ower
ĠP ack
Ġe uro
Ġsuggest ing
ĠJud ge
Ġun ex
ĠF ield
ĠN ic
Ġrapid ly
Ġhit ting
Ġbeg un
Ġ201 9
Ġindic ated
Ä ĥ
Ġsh ips
Ġcont ained
ĠTurk ish
p age
ĠCon ference
Ġprocess ing
4 00
Ġut il
ou ver
ĠF air
Ġintellect ual
Ġchalleng ing
ĠEduc ation
ay ing
ĠPer haps
ams ung
ĠMay or
Ġcorpor ations
Ġelect ronic
Ġw idespread
R ef
Ġtack le
ĠRad io
Ġdisc rimination
Ġh ide
ĠF C
Ġro se
ĠD id
ĠL y
eng ers
Ġrac ist
Ġex ternal
8 7
Ġwe lf
ĠNe xt
Ġtick ets
Ġeth nic
Ġprogress ive
ĠO K
ol en
Ġrepresent ative
ik es
Ġ- >
Ġredu cing
Ġas ks
enn y
ĠM ir
us ive
Ġfriend ly
Ġnorm ally
o en
Ġdesc ription
ĠMus ic
ĠAb out
Ġtechn ique
ri ers
Ġequ ally
es ter
S m
olog ists
Ġwelf are
ion e
Ġill ness
ĠP en
8 5
i y
D av
Ġcampaign s
is p
achus etts
ĠDiv ision
Ġsettle ment
.... ....
Ġsm ooth
ou ch
ĠN SA
b n
h o
St ar
ĠRe uters
abin et
ĠN C
Ġreach ing
âĢĶâĢĶ âĢĶâĢĶ
Ġterror ists
ri ent
Ġrecogn ition
ĠH D
Ġex ceed
b ec
ĠB attle
Ġreview s
Ġ4 1
ec ut
r ical
l s
Ġunc lear
ĠChrist ians
Ġb urd
Ġg ear
Ġb ra
Ġcoll apse
Ġ4 6
ĠD ig
Ġj ury
Ġexclus ive
anc ouver
M c
Wh o
ĠL ittle
ĠF urther
Ġi P
Ġhard ly
Ġret ired
Ġpract ical
ann a
ud es
less ly
ĠH or
Ġcont ribute
Ġi OS
Ġ4 3
Ġnot ion
ĠSqu are
Ġconnect ions
Ġb ail
ĠII I
Ġgr ass
omet hing
ix ed
Ġdep uty
Ġt ail
Ġcompl aints
Ġth rown
ĠLat in
Ġper pet
ty pe
ow ing
Ġsubject s
um a
Ġmind s
Ġl ists
Ġpo ly
ĠR ef
Ġassoci ation
Ġprep are
Ġcare fully
Ġscore s
Ġoverwhel ming
od ing
sel s
Ġdev ast
Ġl obby
ĠF ull
ĠC ore
Ġrespect ively
Ġrec over
im m
L ook
Ġel ig
in f
el f
Ġiniti ative
Ġsm oke
Ġinvolve ment
Ġrob ot
Ġh ook
Ġconvin ced
ust ed
P ost
um es
Ġl oyal
P G
ut ies
ĠL uc
ĠG ov
Ġunemploy ment
Ġinv ited
ĠP it
Ġfeat uring
ĠD ata
Ġv ary
arr ass
ĠT enn
ĠK ansas
Ġinv ent
S ub
ĠP ent
ag g
W ill
Ġstrateg ic
Ġdeep er
c ore
ned y
ĠBro ther
Ġfl ash
ĠBern ie
Ġsens itive
if est
ĠIn formation
Ġfr ag
Ġan ger
Ġinvestig ate
ĠA BC
ĠO nt
it i
ĠS ir
ĠT own
Ġrem em
Ġstat istics
Ġw ars
ĠC irc
Â °
Ġindepend ence
ĠS at
Ġf iscal
ĠPenn sylvania
ĠPat rick
pl oad
Ġrefer ring
ĠM ah
Ġtrans gender
r ine
ĠN ever
Ġserv es
Ġvers us
F A
ĠE s
w orth
Ġneigh bour
ĠO N
ro lled
y ard
ĠR us
Ġfore st
ĠA ND
igr ant
Ġconst itutional
ivers ary
Ġre ven
Ġne ck
ĠG aza
d em
Ġvisit ors
app y
ĠMed ical
7 2
he ast
Ġfant asy
Ġany body
Ġjo ining
Ġimprove ments
Ġv ital
Ġrem arks
6 9
Ġrep rodu
Ġleg s
ĠAl bert
Ġfail ing
ĠGuard ian
P C
U nder
Ġno ise
ĠS S
Ġfear s
ĠH ay
Ġcap tain
Ġs in
yth on
Ġcompre hens
Ġst eal
ĠI ce
Ġincor por
## ##
Ġm o
http s
Ġw ww
Ġsu gar
inc luding
ĠBe ach
Ġal ien
R I
Ġmen u
Ġst upid
Ġcitiz en
rat or
Ġgen etic
Ġcontrovers y
Ġtest im
Ġc os
Ġacc us
ino is
B ack
Ġschol ars
Ġreg ister
level and
Ġliqu id
Ġbehavi our
Ġowners hip
m ary
Ġdem ocratic
Ġrec all
Ġsc reens
Ġg athered
Ġdisag ree
Ġf ab
ang el
ĠMass achusetts
Ġpro sec
Ġ ?
Ġtem porary
ĠA le
Ġentertain ment
m ad
Ġframe work
e en
Ġlic ens
Ġl uck
Ġt ip
Ġf iction
Ġs oph
Ġcollect ive
Ġdisc overy
ĠJ ay
Ġthe at
Ġmil k
Ġimplement ed
ĠCommun ity
Ġreg ulation
7 4
P M
Ġdef ine
os it
Ġdiscuss ions
ĠL ind
ĠR en
ĠU FC
Ġcivil ians
Ġest imate
Ġpe ak
Sc ript
ĠC ook
Ġhand ful
Ġ199 7
Ġview ers
Ġr ural
R C
ĠMin istry
un ior
Ġt asks
Ġult imate
ĠK at
Ġhor se
ĠM useum
Ġsc andal
Ġext end
c ase
Ġin ject
Ġexpand ed
g ener
c ific
ĠAnt on
Ġaware ness
Ġover t
C he
ĠBalt imore
Ġrecomm ended
Ġaff airs
ĠA p
ĠArab ia
Ġcas ual
Ġdynam ic
ĠB all
Ab out
ĠB udd
ĠCamer on
" )
ick ing
Ġ199 6
Ġroad s
U N
Ġattempt ing
' .
Ġground s
Ġeas tern
ĠESP N
Ġtr ained
ict ions
A G
ĠVeg as
h our
Ġhead ing
ĠA ction
Ġpublic ation
Ġsuff er
l ah
Ġbr ill
New s
Ġhol iday
ĠM ake
m at
u ction
ĠColumb ia
ĠWalk er
Ġt one
Ġsuspect ed
Ġp apers
ĠâĪ Ĵ
Ġmedic ine
ĠAll en
Ġattack ing
Ġatt ached
Ġsett ings
ih ad
ph ones
Ġenorm ous
Ġign ore
ĠHist ory
Ġtouch down
Ġlog ic
Ġpurch ased
Ġgu est
Ġfact ory
Ġc ogn
Ġplatform s
ĠGree ce
ĠB rew
Ġr aw
ĠProf essor
Ġcele b
ĠSant a
V E
Ġout s
s erv
R uss
Ġlay er
ĠSt adium
Ġhuman ity
Ġhyp ot
ĠH o
ĠCh air
ac on
ult ural
Ġbo at
ĠMat thew
ĠT ri
Ġk m
ĠS uch
Ġw ages
Ġf oss
Ġstay ed
ĠAust in
ick et
b i
Ġoffic es
ition ally
Ġtweet ed
ĠSt one
Ġlegit imate
Ġc ro
Ġsympt oms
Ġinvestig ators
Ġs orry
8 9
omm od
Ġopin ions
iver pool
v ard
oty pe
Ġres ign
ĠAP I
Ġfall en
Ġdram atic
Ġsam ples
Ġp orn
Ġres ource
qu est
ĠPat ri
Ġhand ed
Ġread s
Ġdis pl
ĠPh ilipp
am med
Ġlo ans
Ġimprove ment
Ġbrother s
Ġf ulf
ĠChe ck
Ġr aces
ĠHow ard
ect ive
Ġrefere nd
co ver
ĠRev olution
ĠIraq i
Ġd iversity
ĠSpr ing
Ġc oc
Ġing red
Ġsubstant ial
Ġview ed
Ġspirit ual
Ġw rest
Ġact ors
ĠQue en
ĠX box
Ġactiv ist
Ġabs ence
Ġast ron
Ġover s
Ġrank ed
Ġconspir acy
" .[
ĠU lt
Ġprov iders
Ġcare ful
un es
. -
ir y
Ġco vers
Ġ ~
Ġb ureau
Ġadvoc ates
ar ms
intend o
A ss
Ġinvestig ating
ĠSh are
ĠSt at
d ri
Ġpres um
Ġinfl ation
Ġam id
Ġsal ary
W here
Ġst ake
Ġinvol ves
S en
Ġr ational
Ġtom orrow
ak a
Ġprinc ip
ĠR oss
Ġsusp ended
ĠA cc
ĠV ancouver
re c
ĠB ang
Ġro ok
E G
il a
re pre
ple te
ĠAnth ony
Ġdis rupt
ĠP ot
ĠKen nedy
ĠMe an
Ġmiss ile
p ed
Ġatt itude
ĠHe ad
Ġaddress ed
Ġemb arrass
Ġmon itor
Ġb ars
Rel ated
x it
ĠCont rol
re ts
st ract
Ġj ur
Ġclot hes
Ġconvers ations
Ġg ains
Ġsp aces
Ġvirt ually
Ġb acter
es h
Ġ5 2
Ġaut hent
Ġseem ingly
are t
Ġpre f
ĠF reedom
Ġprote in
ic ity
ov al
Ġinter vention
ut ed
Ġdep ends
Ġspeak s
Ġpre ced
repre ne
Ġlow est
N ote
Ġw ine
Ġnot ing
m aker
p at
ĠR a
Ġmus ical
ES T
hel sea
Ġent r
Ġfant astic
Ġprof its
ĠR oy
Ġh am
am ac
ĠAnd erson
we red
ĠGold en
Ġinc idents
ĠConserv ative
Ġj e
ĠC BS
cl aim
Ġread er
ĠLew is
ĠIran ian
ke ep
Ġwar rant
ist ing
Ġch apter
ien ces
F F
Ġthrow ing
Ġsubsequ ent
Ġco aches
h ot
Ġste el
ĠH ospital
B oth
sen al
ĠW W
Ġcon sole
Ġtemper atures
Ġg am
ĠInt elligence
ĠF amily
Ġf ruit
Ġmount ain
Ġshould er
S te
i ability
Ġconsist ently
fl ix
our se
Ġcover ing
Ġdist ributed
Ġsh out
H er
ord on
sc ale
ĠT ro
it age
u its
Ġmin ing
Ġst one
Ġhand ling
ĠIll inois
rop ri
d it
Ġh int
Ġpet ition
Ġcl osing
Ġcontribut ions
Ġth rew
Ġcon ce
Â Ĵ
ĠC leveland
iv als
Ġeff iciency
d es
pl ate
Ġsur f
Ġmat hem
ĠHar ris
ĠG etty
pp ers
Ġjo ke
Ġsp oken
ĠN ATO
Ġr if
Ġprom ises
z y
Ġr het
Ġacc ommod
Ġbro wn
ab eth
Ġr om
Ġperson ality
Ġhom eless
ĠK ong
in ch
Ġd rew
Ġsw ing
ĠL A
Ġguarant ee
Ġtri es
Ġinnov ation
Ġin ner
ĠC re
Ġâ Ĥ¬
Ġprot ocol
Ġappreci ate
ĠMar vel
Ġmar ks
Ġl ying
7 9
Ġport ray
Ġr anks
! )
ge on
oun ce
Ġ5 1
d ated
et ers
ij ing
Ġencour aged
Ġg rav
ann els
br idge
Ġcom edy
ĠA I
ĠA C
ĠEng ine
Ġprotect ing
ĠL yn
ĠL as
Ġcol ors
ĠCon nect
Ġtransport ation
it ting
ĠP op
Ġbar rel
Ġacknowled ged
6 3
Ġhor ror
un icip
Ġus age
hes is
ĠC H
US T
Ġso il
ĠB a
z ed
ĠUn fortunately
Ġl ucky
ĠS ony
back s
Ġimpro ving
Ġreplace ment
Ġdiv ided
ol ph
ĠEn vironment
Ġd ance
N S
Ġcommon ly
Ġjud ges
ĠBro ad
Ġball ot
h op
amac are
Ġ199 5
bre ak
Ġdep ression
Ġphot ograp
en cing
Ġprem ium
Ġm aps
ĠC apt
Ġsil ver
Ġabandon ed
ĠS amsung
Ġd iverse
ĠT our
ĠJ am
Ġpass engers
6 1
Ġrat io
P lease
Ġpar alle
iet ies
ĠInd eed
Ġreferend um
ĠS us
ĠN OT
- >
ĠDen ver
og s
Ġvot er
al ia
Ġdemonst rated
20 16
Ġord inary
Ġre vel
Ġl ands
ct ic
ĠSe ason
ed ing
ĠWh ich
pl ed
p ie
Ġign ored
port ed
Ġle ts
Ġl ocked
ĠD et
Y our
ĠE xt
Ġdom ain
ĠE ag
Ġmist akes
Ġf estival
Ġy ellow
Ġche cks
ĠB ad
Ġbreak s
ĠHe ll
he im
Ġspokes person
lah oma
od ed
Ġj oy
Ġsho pping
ĠPl us
Ġnom ination
Ġtre m
P art
ĠL ow
ĠN ev
l ow
Ġex it
ĠC ost
Ar t
ass ador
Ġbu ff
ap ing
Ġleg acy
ĠS et
av al
Ġper mit
ĠWith out
Ġtw enty
Ġd ump
ĠMex ican
ĠG T
6 2
Ġst y
ĠB on
oc ument
arg o
Ġ( âĢľ
in ction
Ġhelp ful
Ġdr ama
i ate
c ut
Ġstri king
Ġst olen
C ons
Ġsc an
ĠG un
ĠSt art
er ted
ĠH a
Ġsc ope
ĠGal axy
om es
con f
Ġl es
ĠH ind
Ġcl ock
Ġliter ature
aw are
ecut ive
Ġfund ed
ir a
Ġf ro
Ġbl ast
ĠFoot ball
ĠSwed en
Ġinstru ment
Ġc ust
Ġarri ve
ĠT rib
Ġcop ies
Ġstud ied
Ġcap abilities
ĠDo es
ĠS ometimes
ĠL im
Ġins isted
Ġpop ulations
Ġtrans actions
Ġtrack ing
Ġhead quarters
ĠAtlant ic
Ġdef icit
Ġre ar
Ġconserv atives
Ġrac ism
ĠA ud
8 00
ĠS cient
Ġcount s
Ġfall s
ack et
" >
el a
Ġte a
ĠDe ath
Ġst ages
Ġm ad
Ġmonit oring
Ġrepresent ing
est y
Ġrepl ied
ĠD ave
Ġcritic ized
Ġt ape
Ġpartners hip
Ġappoint ed
y o
S ource
Ġn aturally
Ġtr ave
Ġb ub
Ġcom pe
Ġm arch
Ġsy mp
ĠA ward
Ġ199 4
Ġh ung
B M
Ġgu itar
Ġd ad
d ney
Ġ20 20
h ar
Ġacqu ired
7 3
Ġske pt
Ġmid field
Ġr amp
c rib
Ġrespons es
f und
ir ts
h igh
Ġdismiss ed
Ġdist ract
Ġinf o
a is
ĠEmp ire
ing ton
Ġperform ing
Ġabs or
Ġupgr ade
E E
y er
P P
the less
C omp
ĠPro v
ĠM aster
ĠR os
or ge
Ġre nder
Ġh ockey
F acebook
ĠAssoci ated
Ġin equ
Ġpropos als
Ġvis iting
Ġm oon
Ġprogram me
Ġwat ers
on ly
th rough
d oor
Ġaccompl ish
Ġpredict ed
r imin
**** ****
Ġsupp lies
com es
Ġass ign
er ies
ĠPr ince
Ġun ions
ĠU se
Ġm useum
Ġ _
Ġp atch
ĠL ine
Ġmeas ured
ĠC ro
Ġe c
Ġart ific
Ġconvention al
K e
Ġequ ality
Ġex ch
ĠB ron
Ġab road
ĠP o
Ġhop ed
Ġg al
Ġcl ar
Ġbeaut y
Ġm ole
ĠA ge
ĠAb b
nt il
Ġresc ue
Ġclass ified
ĠB ible
Ġpers ons
Ġrequest ed
Ġwar n
Ġgr id
Ġassess ment
ag ic
Ġur ged
Ġcan ce
Ġv es
Ġass ert
ile y
iz abeth
Ġvir us
Ġsen ator
Ġappear ances
el son
Ġw ider
j i
Ġcent ers
ĠFr ont
ĠOr ig
ĠRober ts
ĠCor por
b ow
Ġsequ ence
Ġtrans it
ugh t
Ġpl ain
orm al
Ġd ub
or gan
Ġcongress ional
ĠM arsh
ĠP ass
A re
usal em
ĠIndian a
Ġhy per
ĠB ureau
Ġunivers ities
Ġpolit ically
Ġdro ve
Ġrel iable
O K
Ġviol ation
Ġentit led
Ġaut o
Ġveter ans
aed a
ĠC A
Ġland scape
Ġlet ting
ah u
at ar
ĠB ase
Ġsatell ite
Ġa x
Ġblock ed
ult ane
Ġtrig ger
ĠTechn ology
ĠB uff
in ating
sh ire
ag a
Ġrece iver
f ol
AN D
Ġsav ings
Ġb read
m ony
Ġconc rete
ĠA st
r ite
9 4
Ġappro ached
Ġt ie
Ġf iring
ĠM ill
20 14
Ġp ig
ĠâĢ Ŀ
Ġwhen ever
Ġunivers al
Ġpres idency
Ġd ates
ĠMary land
all ing
af e
Ġrestaur ants
ĠB ra
ĠM oon
Ġretire ment
Ġtestim ony
7 1
Ġm os
ord inary
Ġbrill iant
tr ans
Ġprison ers
Ġcont rad
w as
a ver
ir lf
ĠâĢ ¢
m ade
room s
ĠOlymp ic
arch y
Ġc ig
Ġm it
ĠOnt ario
Ġtarget ing
Ġsub mit
20 15
ĠC ode
Ġspokes woman
Ġbreat h
Ġf ighter
irlf riend
Ġrock et
ĠHar vard
ol ves
Y et
ĠV ill
the y
9 3
Ġphr ase
Ġfl ags
St ill
Ġd ust
d ed
Ġpurs ue
Ġexper iments
Ġinvestig ations
ĠD utch
m ers
Ġemploy ed
ĠL iverpool
Ġfore cast
Ã ¢
ĠN intendo
Ġmonth ly
Ġsurv ival
Ġbon us
ĠG irl
Ġr ush
ĠK ar
à ´
Ġdesign s
pt on
Ġh osp
Ġmembers hip
8 4
Ġpopular ity
Ġintrodu ction
ou ri
ag h
ber ry
ĠJust in
ĠAd v
ik a
ĠM ach
Ġgener ations
Ġqu ote
Ġoverse as
Ġencoun ter
Ġt ips
m ind
Th ough
H T
eder ation
or ous
Ġth orough
Ġsa ving
ĠBe ijing
ĠC ow
is k
Ġdocument ary
Ġwe igh
ra pped
Ġch annels
ene z
ound ing
Ġt ens
pl us
er g
O s
Ġsw im
ĠCo oper
Ġprosecut ors
Ġunex pected
Ġrepresent atives
Ġlo ose
is a
Ġarg ues
ik i
Ġtact ics
ic ism
Ġsm oking
Ġphenomen on
m ans
ent er
ĠAlex ander
Ġs alt
Ġbank ing
Ġtit led
Ġhy dro
old s
ĠUt ah
est ed
ĠOk lahoma
6 00
Ġun pre
ĠOb amacare
er ts
Ġhealth care
em ed
R L
Ġfocus ing
r ace
Ġdifferent ly
ĠPalestin ians
f are
ast y
Ġcomp are
Ġab ilities
omp son
Ġser vers
Ġsoc cer
ĠPr ice
Ġdis order
Ġbut t
Ġsett led
ĠU r
ĠEx pl
Ġf ur
u h
Ġmaintain ed
Ġcelebr ate
is ons
Ġwealth y
Ġac id
Ġsure ly
Dav id
Ġt ab
ater n
ie v
Ġex ha
Ġpr on
Ġmin i
S C
Ġqu oted
ĠLiber al
z ing
Ġinnoc ent
ĠD O
Ġscient ist
Ġw edd
T y
Ġprov ision
c est
Ġroom s
in als
ĠL ist
ond er
iz er
Ġintrodu ce
ĠA k
Ġvo ices
Ġchild hood
j ud
Ġst ability
Ġent reprene
ĠF orm
Ġanx iety
Ġsub mitted
Ġfor cing
ocol ate
ĠT ed
ĠH ur
Ġtort ure
ĠBr idge
Ġland ing
Ġwind ows
Ġreform s
Ġann iversary
ĠJer usalem
Ġden y
Ġo kay
Ġre verse
Ġprep aring
Re uters
Ġsil ence
Ġm ac
ĠW as
o is
Ġreve als
Ġarg uing
Ġbroad er
d on
Ġdemand ing
o ice
Ġdead ly
ĠH ave
Ġst ored
Ġobject ive
ĠTe ch
Ġround s
Ġact ively
Ġro of
Ġc ul
Ġa er
E l
Ġprodu cers
Ġb urning
Ġsh r
Ġg ent
Ġf ate
ĠS ab
ĠH op
ĠGovern or
ĠPort land
Ġrele ases
Ġout rage
ĠC helsea
ĠPro p
Ġpip eline
min ute
vern ment
V D
Ġsem i
he ld
Ġpre par
ĠBe ck
Ġf ool
D em
ĠAm ong
h att
Ġaward ed
ĠBel g
ore t
ep s
Ġcirc le
Ġw aves
Ġsp ots
Ġdifficult y
Ġche st
Ġharass ment
ĠBer lin
S im
Ġton ight
Ġdefe ated
ail ed
Ġer rors
re ction
ĠG ulf
Ġp uzz
Ġstre aming
Ġl unch
Ġb irds
ian o
Ġmort g
Ġquestion ed
Ġodd s
ĠScott ish
Ġse vent
Ġar bit
it ol
ak i
ĠGra ham
Ġcre am
Ġd ying
ĠY OU
Ġfrequ ency
Ġke ys
es see
or ious
Ġsh ame
Ġcivil ian
Ġweek ly
ĠSt ore
Ġgrad uate
Ġcomprehens ive
Ġcateg ories
ĠWar ren
Ġs orts
et he
Ġlegisl ative
Ġgreat ly
Ġag es
Ġf et
Ġafford able
ĠDes ign
Ġ199 2
ĠEd ward
Ġsm ell
Ġpoint ing
Ġprecise ly
um ble
ĠW H
Ġdemonst rate
ĠViet nam
Ġrel ax
Ġsecond ary
ĠH ong
Ġadv enture
Ġ9 5
Ġstay ing
Ġb ab
Ġb orders
l ined
ra ig
ut en
Ġinstruct ions
av ed
ĠMean while
ch ild
P re
ĠA z
Ġtr illion
Ġsh ield
Ġrat ings
Ġdist ingu
ten ance
s ub
Ġassum ed
Ġimportant ly
Ġmus cle
p a
Ġinter f
ĠL ink
St ory
Ġconsider ation
Ġpass age
Ġdes erve
m ath
Ġcal m
ĠSt ory
ĠT ai
ĠW olf
ll a
? ?
Ġprom ising
ĠB ud
hold ers
Ġf ing
Ġphys ically
Ġdial ogue
row s
ĠAr k
Ġcooper ation
Ġcr imin
S L
Ġde lic
part y
Ġaut onom
ĠC lick
Ġsmart phone
Ġpers u
Ġstrugg led
Ġint im
ĠSil ver
oen ix
e als
Ġwant ing
Ġremark able
Ġal arm
Ġposs ess
Ġp icks
Ġjud gment
Ġsim ultane
ĠNet flix
enn is
T P
Ġexecut ives
as ant
Ġsh adow
as ury
Ġexec ution
Ġst em
ĠR un
Ġcere mony
Ġarchitect ure
act s
Ġdri ves
Ġ5 3
ĠSy dney
M s
ced ented
Ġh al
Ġse ar
Ġass igned
ĠT en
Ġcons ent
ĠPent agon
rib utes
ĠL t
le e
Ġanaly st
a fter
ĠDe b
Ġrepe at
ĠS ix
ier ce
ĠY emen
it ual
Ġdon ations
Ð »
ĠM ess
Ġn in
Ġrook ie
Ġre vers
ĠBl oom
Ġnewslet ter
ĠM etro
ac co
Ġpropag anda
ĠEm ail
A Y
a uthor
ĠComm on
it o
Ġtrem end
ĠF all
Ġsuspect s
Ġemer ging
ĠCar ter
Go ogle
Ġcent uries
8 3
w alk
b ury
Ġdiv or
ĠLe ft
se ct
ht ml
ĠBat man
Ġbl ank
s es
Ġthreat ening
Ġcons ensus
Ġkil omet
om ed
Ġn a
Ġop ens
Ġcont ribution
Ġsm ile
Ġhost ed
ĠLe on
ol ar
ap olis
ĠHam ilton
ĠP D
Ġco inc
Ġc ow
Ġass ass
iss ue
Ġg if
Ġste pped
ĠInd ust
r ac
Ġl apt
ig ious
Ġsubst ance
Ġinc hes
W atch
it ary
Ġimpl ications
Ġhighlight s
Ġform ation
Ġmeaning ful
it ter
Ġproced ure
ĠV ideo
ĠV ice
port ation
ar ation
Ġaccess ible
Ġ199 3
Ġstrateg ies
Ġclot hing
ĠH art
ĠF riend
Ġ19 50
âĢ Ĳ
ĠT ok
ĠF al
ig ate
ĠB ox
v an
V iew
9 1
Ġleg ally
A F
Ġcontact ed
b ered
ere nt
Ġpromot ing
Ġwhere as
ol n
Ġcompet ing
Ġinvest ments
Ġfoss il
ĠAff airs
Ġrec ipe
Ġdisp ute
Ġenthus i
ĠLe ader
y es
Ġtherap y
ĠM ORE
b its
Ø §
ater al
oc a
Ġg ross
Ġal ter
Ġparticip ation
Ġch icken
ĠP erson
Ġan s
ann on
Ġmiss ions
ĠTe le
Ġw ounded
Ġfood s
ad i
Ġgu idelines
con st
Ġman aging
ĠV ik
vertise ments
scrib e
8 2
Ġplayoff s
Ġfac ilit
ĠT es
ĠM ain
om y
ĠP ict
r if
Ġr h
Ġsuper ior
Ġmin istry
R em
cept ions
Ġrec ruit
iff s
Ġelig ible
Ġn ic
ĠC redit
Ġstud ying
Ġper ceived
Ġend orse
Ġe ase
Ġdr one
St ate
Ġt ap
ak h
Ġindic ates
Ġdam aged
Ġ5 4
Ġman ifest
ĠK ick
ĠE th
op en
Ġkn ee
Ġh ip
v ision
ĠRub y
Ġbi as
ĠY eah
ĠSt ation
od ox
Ġchar ity
Ġexpand ing
ĠCap ital
ĠE qu
Ġph arm
ĠB oe
b ase
ĠJon athan
T R
Ġaddress es
ĠTh rough
ĠBru ce
ĠCr ime
ĠA N
ors hip
s l
M us
D ef
Ġm ood
ĠB al
Ġspect rum
ri x
ĠC reat
A ct
Ġd ies
ĠH on
ac hel
Ġfollow ers
ĠP res
ĠTr ade
ĠMar x
Ġt ired
st al
** *
ĠAs sembly
Ġorgan ic
ĠL am
c or
Ġmem o
Ġdisc ount
we ek
ri ors
ĠD er
e ven
Ġopen ly
miss ions
Ġmem ories
Ġ5 6
Ġd ating
u i
St ep
Ġclin ical
it ure
Ġproced ures
8 1
ĠSar ah
ĠBre xit
Ġtrans action
Ġb owl
ke e
Ġl ux
Ġshe ll
Ġdiscuss ing
or able
Ġag ed
Ġb in
igen ous
ĠG ary
ĠChild ren
ĠMr s
Ġtri als
ĠEx per
Ġdomin ant
C omm
Ġexpl aining
d y
ĠEl izabeth
Ġb ow
Ġgr ade
ĠRep resent
Ġman agers
Ġr iding
Ġsh ipping
ĠU ber
Ġn erv
ĠInst agram
Ġindust ries
Ġcust ody
ov a
ĠSe an
ass y
Ġgraph ics
ĠC S
le ft
Ġimp ression
Ġscr ut
u z
Ġv ig
Ġathlet es
Ġenh ance
Ch rist
E X
Ġpresent ation
ar ia
ge red
d iv
ĠO p
Ġro y
Ġp ocket
Ġdise ases
net ic
Ġbe ings
Ġ( "
Ġsurv iv
ĠStand ard
Ġperiod s
ĠMag ic
ĠY an
Ġkick ed
Ġunder lying
Ġregul atory
Ġarri val
ere my
Ġ1 20
Ġvar iable
ĠOak land
Ġob sc
Ġdef ending
Ġpo ison
ĠR oll
ĠEx ecutive
Ġbatt les
Ġfund ra
Ġs ed
Ġst ere
Ġt ut
Ġeduc ational
Ġback ing
Ã §
Ġrec re
it udes
Ġ9 9
Ġgather ing
ĠW ales
ac her
ĠG O
ri or
ĠS om
ĠF inal
Ġcounter part
Ġblock chain
Ġinst itution
oc ial
Ġins pect
Ġfl ed
Ġhosp itals
ĠM it
Ġdis h
new s
Ġrequire ment
T ER
Ġreb els
ĠMan agement
Ġcomp at
ĠH old
Ġthe ories
h ard
Ġst ance
Ġso vere
Ġg ate
Ġbe ating
Ġsign als
Ġrac ing
ĠLib ya
Ġsearch ing
Ġhe lic
ĠTenn essee
ĠS on
Ġhop efully
Ġe ager
ĠMur ray
O ut
mark et
Ġtop ics
Ġpull ing
yl um
Ġunf air
R eg
Ġburd en
Ġmarg in
Ġpick ing
land o
ro ph
Ġtim ing
Ġcoach ing
er ia
Ġover come
Ġar r
Ġbill ions
A B
ar re
Ġspeak er
Ġt ables
ĠH oll
ĠTh ompson
Ġsent enced
Ġadv iser
alt ies
Ġre nd
pt ions
à ¤
ĠN one
ol ving
ative ly
Ġcr us
ĠMic hel
og y
Ġrhet oric
Ġ2 50
ish op
20 12
i ac
Ġegg s
cos ystem
Ġl ad
am ous
ĠMor gan
ĠA ccess
Ġprincip al
Ġcl er
ad ers
Ġbot tle
Ġgen es
ang le
art s
M od
Ġinter action
ĠF estival
Ġstop s
Ġkit chen
p g
ĠB ol
Ġsign ature
play er
Ġconv ince
Ġt ons
Ġcapital ism
Ġattract ive
ĠPit ts
ixt ure
se ction
Ġout lets
Ġevery day
ĠUs ing
Ġrequ iring
ĠT ax
Ġengine ers
Ġd reams
ab et
ĠAnd re
ĠS ure
Ġpoll ution
Ġtrend s
Ġacknow ledge
li est
iz za
M ich
Ġprefer red
ĠF inally
ĠM L
ĠAss ad
H z
Ġtem por
Ġpsych ological
Ġbul let
ĠV e
Ġhelic op
Ġset up
Ġocc urs
ĠKe ep
C al
Ġpart ly
Ġstat ist
Ġse ctions
Ġins ult
Ġ199 1
du ction
al ysis
g us
!! !!
is ition
w ill
Ġspe ll
Ġsh oes
Ġline up
Ġbad ly
Ġe lder
Ġf o
Ġpar ad
Ġpunish ment
Ġcoll aps
Ġse ed
ĠHaw ai
ent al
Ġper ception
Ġh ire
ĠM LS
Ġextra ordinary
g ets
ĠF ant
Ġunpre cedented
opy right
Ġconstit u
Ġans wered
G e
ĠPhot os
aren cy
ol i
ĠS ound
v ia
w atch
ag ger
gr ade
th rop
Ġpregn ant
Ġam endment
Ġfrequ ent
Ġcom ics
m ic
Ġesc al
Ġm ath
Ġappro aches
P aul
em ic
Ġro ots
ĠInt el
Ġar ts
Ġm igrants
ĠDr agon
F i
C O
Ã ±
sc reen
ĠP A
Ġc iting
ĠJ ean
br id
Ġm ask
ĠCl ark
} }
enez uel
h as
ĠPri v
Ġinst ant
Ġfunction al
Ġdisplay ed
ĠE ff
F inally
Ġun ve
Ġdead line
row ing
Ġmod ule
v i
unicip al
Ġelimin ate
Ġu pload
igh th
ĠR ather
Ġut ility
AL L
Ġe cho
Ġl oves
Ġmer ch
Ġbe ach
Ġshe et
V P
E arlier
Ġrem oval
Ġcontem porary
j s
ĠKent ucky
Ġlo op
Ġg est
Ġdi am
Is rael
Ġg ig
Ġcorrect ly
Ġhom osexual
ĠG DP
ĠG il
Ġse gment
Ġcor rupt
Ġpost ing
Ġeconom ics
ĠThere fore
is dom
ĠE ver
Ġtox ic
Ġencour aging
T op
Ġfab ric
ĠCharl ie
end ar
Ġgen re
N BC
en ess
ĠB ow
20 13
Ġweak ness
inc oln
Ġinst ances
Ġpubl ishing
Ġcogn itive
Ġcompens ation
Ġcommand er
Ġprospect s
Ġsix th
Ġridic ulous
ĠO x
Ġcou ples
ð Ł
Ġst amp
ĠSim on
ĠJava Script
Ġins ight
Ġb old
Ġinv asion
Ġg irlfriend
Ġgl ad
Ġunder t
Ġsub sc
Ġcreat ures
Ġint r
Ġneighb ors
ĠMc K
Ġg ene
ĠCap tain
Ġc ock
Ġche aper
ĠS av
ĠDo ctor
Ġpri ze
ĠWhe ther
Ġir re
Ġengine er
ĠZ e
Ġbut ter
Ġs its
Ġmoder ate
art ed
ĠG ordon
str ong
Ġsp an
Ġro lling
ĠL i
Ġcar ries
Ġb ene
on z
Ġassoci ate
C lick
Ġmain tenance
ĠI ron
che ck
ĠPh ill
Ġdram atically
Ġres erved
ĠHar per
Ġle ct
Ġcol our
ĠRe agan
Ġtr aged
Ġde light
Ġint ellig
Ġp ill
ĠCo le
ne cess
Ġcamp s
t ra
Ġtwe ets
Ġdiplom atic
Ġexc lud
Ġprompt ed
ot ing
Ġse ized
Ġoccas ionally
ĠBel ow
ĠE vent
Ġnot able
Ġfat al
Ġinqu iry
Ġbirth day
Ġtal ented
Ġdeploy ed
ĠD ick
hatt an
ĠB i
est yle
Ġdemand ed
ik h
ĠBrook lyn
Ġstim ul
Ġviol ations
M ark
Ġemot ions
Ġmyster y
Ġan onymous
Ġconst itution
Ġconcept s
Ġass et
T ime
ĠDig ital
Ġinequ ality
Ġbox es
Ġan cest
ĠP ers
m ir
ip edia
Ġlog o
arg et
Ġe cosystem
Ġrep air
Ġinterview ed
Ġpod cast
Ġbi ological
Ġv end
Ġregist ration
ĠP sych
ix on
Ġanaly sts
Ġav ail
Ġtown s
2 50
ult y
B N
Ġopp ose
ĠCome y
ĠO cean
Ġaccomp an
Ġad equ
Ġdist ur
20 17
Ġartific ial
od ge
P L
Ġar c
Ġmanufacture rs
Ġdisappoint ed
ĠS U
Ġland ed
Ġaim s
Ġn ose
Ġche ese
Ġinter pre
Ġbu ck
ĠDel hi
ump h
at us
ĠFollow ing
Ġcollabor ation
le ans
ĠiP ad
Ġple ased
d s
Ġdef ender
Ġ5 7
w a
Ġgu ests
ll y
Ġkn ock
f it
f unction
in stein
Ġres olve
Ġexplos ion
Ġcou p
ĠEconom ic
Ġemploy ers
ro t
Ġpro st
ial s
Ġrepresent ation
Ġbank rupt
Ġrecommend ations
ĠB urn
Ġ5 8
Ġh anging
ĠP age
ro ck
ac re
ĠTr ust
1 50
ĠKh an
Ġimp osed
Ġex port
Th anks
c re
Ġcommunic ate
c al
Ġsub ur
Ġdesign er
Ġown s
Ġs li
Ġfight s
ĠRus sell
ĠH and
ĠCap itol
ĠG iven
ĠAuthor ity
Ġless ons
Ġhero es
Ġl ift
Ġcl ip
Ġsold ier
G ener
Ġs ne
T ON
h ist
Ġlif etime
Ġparalle l
Ġter r
Ġmaintain ing
ĠSt aff
ĠCon vention
Ġv ocal
ist ant
ib an
Ġp unch
Ġrec on
Ġrec alled
Ġless on
st arter
ĠH an
Ġtravel ing
Ġconscious ness
i ens
Ġrel ation
ĠB ul
Ġsurround ed
Ġst ro
Ġrefere nces
ĠJ enn
Ġconcer ning
Ġperform ances
ows ki
ok er
Ġat he
Ġadvoc ate
ĠPh oenix
Ġb ird
Ġjump ed
ĠCh annel
ear ly
Ġmod ified
Ġconf used
tain ment
ĠOr der
ĠMount ain
ĠRes erve
W he
ĠC ustom
Inst ead
Ġte eth
ew art
w ed
Ġbrut al
Ġingred ients
ĠMont real
w ind
el le
âĸ Ī
Ġl ibr
ap ore
G u
": "
ĠOr leans
h ire
g ov
b ound
Ġunder ground
Ġsc ream
f ather
own ed
Ġ198 9
Ġdescrib ing
Ġc ens
he ro
Ġdr unk
s a
N ext
Ġadop t
Ġwedd ing
Ġmathem at
Ġmin imal
Ġvolunte ers
ch ing
ĠMiss ouri
h r
ĠAr senal
Tr ans
Ġm ice
ac les
aw ks
el ing
Ġsh irt
Ġexist ed
Ġs essions
ĠNev ada
che ll
Ġisol ated
Ġinspir ation
Ġprofession als
Ġintegr ation
Ġide ology
Ġn urs
F O
Ġpro be
Ġcert ific
Up date
Ġacc um
app ropri
ĠE PA
ĠB M
ï ¼
s ome
re nd
Ġeng ines
Ġcho osing
Ġin herent
Ġqu it
com mun
Ġref ers
Ġb ands
Ġp a
ĠCo al
AR T
Ġsh ocked
ĠG ro
Ġj er
Ġmilit ants
Ġintegr ity
ab e
Ġut ter
ĠAr gent
D own
og a
Ġprof ound
G E
Ġaccept able
ĠPitts burgh
Ġ6 00
app er
ĠS D
sec urity
ĠE st
Ġbur ied
ĠS a
D is
. ]
Ġsubsequ ently
gr aph
Ġor bit
ĠE T
ou b
Ġdisapp ear
ĠLe ban
Ġelect oral
Ġref use
ĠN on
Ġlab our
ĠAl an
ĠMan hattan
ĠH al
ĠD ur
ĠF ive
Ġfle et
ĠGi ants
orne ys
Ġ8 5
Ġspeak ers
ag en
A g
Ġmoment um
ĠAnton io
ĠL ear
ol s
Ġsum mit
ĠL ibrary
Ġgu id
Ġsusp ic
ib l
Ġembr ace
Ġstrugg les
Ġpeace ful
Ġh oles
Ġconsider able
Ġp m
ĠT ower
d r
Ġfl our
Ġnerv ous
ĠK now
im mer
Ġopp osing
Ġconfig uration
Ġbrief ly
Ġs wit
Ġst ating
P al
Ġ vert
Ġdistrict s
Ġpromot ion
Ġsil ent
Ġdesper ate
Ġwond ering
ubl ished
ĠM un
Spe aking
Ġst ack
Ġme al
ĠP y
bour ne
Ġexp ense
Ġexclus ively
Ġab stract
ĠV en
Ġsubscrib e
Ġdom inated
h uman
ĠC raig
to o
Ġorgan isation
ell ing
Ġcred its
C D
book s
B r
Ġoccas ional
Ġfor um
ĠOff icer
Ġclos est
ĠOn line
p ack
ĠPort ug
e lection
Ġcor rel
Ġy eah
ĠR ome
Ġident ical
ĠM ult
inc ome
Ġgu ards
ĠW ord
Ġev ident
Ġdon ors
Ġl obb
ĠPlay er
ĠAre a
( "
ĠProt ection
ĠMar ine
im ize
ĠC ase
ĠAll iance
Sh are
Ġcomprom ise
Ġf el
ut ter
wh ite
Ġh arsh
Ġsustain able
Ġgame play
Ġd a
Ġrefuge e
Ġj ihad
Ġo rient
m its
Ġeng aging
ĠV enezuel
ot te
Ġrem oving
Ã³ n
N ame
Ġf ert
Ġann oy
Ġm ile
Ġcrimin als
Ġjust ify
Ġprint ed
ĠOr lando
ĠT s
ĠO cc
com p
Ġinter ior
Ġatt ending
b at
ĠB an
Ġsurv ived
ĠC ON
N et
ĠF A
Ġrout es
ric ane
Ġcont rary
Ġsc ar
Ġkn ife
St ation
ĠO pp
ĠAd ams
Ð º
Ġteam mates
Ġple asure
Ġexecut ed
AT CH
Ġpack ages
Ġinterpret ation
d ict
G l
Ġem bed
Ġcon vert
ars on
g ate
Ġelect ron
Ġconf usion
in st
Ġjournal ism
ĠD u
ĠAn na
Ġstead y
ĠCur rent
ĠR aj
Ġload ed
ĠBar b
Ġh iring
ĠN orm
Th ank
ĠB u
ĠV lad
Ġg ri
Ġbre ast
Ġmir ror
ĠEvery one
He y
Ġbacter ia
âĢ¦ .
ĠI M
Ġch ronic
re ck
K E
ĠÃ Ĺ
Ġphys ics
g ood
ar o
ĠC ould
Ġcharacter istics
ĠL incoln
S U
Ġbom bs
Ġd ual
ĠN azi
Ġfail s
st op
am ine
Ġwitness es
G r
ĠM ail
gr ad
ĠW rit
m ble
Ġ< /
ĠAnd y
Ġsp o
ĠS H
Ġconcer t
Ġch ip
Ġde emed
Ġfle e
el ve
M AN
Ġmet h
ĠL ater
Ġdesk top
Ġpr ide
on ed
Ġrob ust
th ood
an im
Ġsoph istic
Ġnow here
ĠH aving
lyn n
Ġfl ights
Ġbomb ing
Ġpres ents
Ġcreat ure
ĠE ve
res hold
L ist
Ġstreng then
ĠCh ange
Ġspec ulation
Ġsex ually
ĠUkrain ian
Ġas ylum
sc ar
ĠT el
Ġhost s
Ġcha os
ĠSp ir
Ġrevolution ary
r ics
Ġb its
ĠTre asury
ĠH u
Ġsl ot
li hood
Ġbr ands
ĠW right
ĠSte el
Ġ7 2
Ġ6 2
ern and
ol id
im b
Ġas sembly
Bl ack
ment ed
ĠS ci
Ġ ).
Ġw et
ĠTre k
ĠD ak
Ġdro pping
Ã ¨
ĠNet her
Ġep ic
Ġtremend ous
gg ed
ing e
m ay
Ġchalleng ed
ĠR est
ĠH amp
ĠO R
ĠHit ler
ĠH ung
th odox
r ition
Ġpack ed
im ir
Ġobs er
ĠM ove
Ġout comes
Ġsol o
b en
Ġo xy
ĠSh ort
ĠF uture
Ġc inem
ĠB and
ĠSupp ort
ĠSher iff
ĠEnter tainment
Ġas semb
Ġle aked
Ġev ac
ĠA ren
Ġav o
is hers
Ñ ĥ
Ġc abinet
Ġend ors
ĠW i
Ġin her
Ġmin isters
ĠMiss iss
oc ated
ĠTh ings
Ġexp enses
J P
Ġrepe al
Ġsusp ension
ĠInd ependent
op t
Ġra ises
Ġmon ster
ĠP ope
ist le
R ed
Ġhun ting
Ġt ear
id en
c ap
Ġrec overed
Ġbo om
Ġprodu ces
Ġforg otten
ĠB C
Ġoccup ied
ĠD ream
R ight
ell o
Ġrad iation
Ġcur ious
ĠL es
Ġedit orial
ĠChair man
Ġvari ables
Ġev olved
Ġfig ured
Ġall iance
ĠRuss ians
ĠP ant
Ġv ent
Ġres erv
ĠW ould
ĠTes la
e le
Ġattract ed
Ġdepart ure
ter ror
Ġv it
ĠK r
om ic
ĠCor p
Ġen abled
ix el
ĠP ython
ĠUS B
Ġ5 9
Ġr ic
Ġsimultane ously
iz arre
ĠH IV
Ġburn ed
Ġign or
th ur
Ġcheck ing
ĠMedic aid
ĠD uke
lim ited
ĠJ erry
v ol
Ġsen ators
Ġdepend ent
l ink
Ġinflu enced
if ier
look ing
angu age
ĠRob inson
ĠC as
ate ful
Ġbl amed
Ġne ur
ĠSh ould
Ġresearc her
ra h
Ġagree ments
Ġcap s
Ġal ert
ĠEd ition
Ġjur is
ĠR s
Ġdevelop ments
Ġguarant eed
Ġpass enger
Ġen act
Ġproport ion
Ġsurprising ly
Ġpubl ish
Ġfl avor
Ġall y
C ar
Ġh ub
Ġ8 00
Ġang le
Ġcour age
ĠCapt ion
ie re
Ġoccas ion
Ġdef ended
Ġ !
Ġstri p
v as
Ġeng agement
Ġfl av
Ġimpact s
Ġv enture
ĠG h
ades h
H P
Ġin aug
at tered
us er
Ġproduct ive
Ġcharg ing
Ġcy cl
Ġmotiv ated
Ġblock ing
l arge
S D
Ġacc ord
w ich
bl ock
ĠInd ones
ĠR h
ipp i
Ġintegr ated
ĠS ource
any ahu
ĠH ug
ĠA aron
ĠA lp
Ġkey board
oll ar
â Ĥ¬
ethe less
ĠG ib
F l
Ġcourt esy
b ian
Ġinev itable
ĠB ir
ĠPer ry
ĠPl ace
t est
B ook
7 00
mer ce
Ġpat ri
Ġtaxp ayers
Ġrele asing
Ġl in
Ġtow er
U C
ĠTal iban
g ly
Ġimp rison
Ġexpect ing
Ġcontin u
n ie
Ġtransfer red
à ¸
Ġcon secut
ut her
ast e
Ġtrail er
Ġqual ified
ĠRed dit
ĠG ill
Ġle an
Ġk iss
i ar
ac o
oph ob
). [
Ġp ir
ist a
ĠK it
le ep
Ġent ity
Ġregard ed
Ġanim ation
Ġkill er
n an
on ing
Ġhousehold s
ree k
Ġnation wide
Ġb arg
ĠSing apore
olit ical
ant e
ĠWar ner
Ġsc ared
Ġun necess
Ġorgan is
G A
Q L
st ring
ick ed
Ġintim id
ry ing
ĠMP s
ĠStud ies
ĠC PU
ĠOtt awa
ĠChrist opher
o ft
ĠFil m
ĠC old
Ġexpect s
Ġexam ine
Ġw ise
ĠC B
Ġback s
Ġm ales
ab out
f ish
ĠJ un
ach ment
Ġj unior
Ġfil ter
ĠMod i
Ġconflic ts
ard o
S upp
Ġtransp arency
ĠCanad ians
Ġentr ance
ĠT otal
Ġdes p
Ġtele phone
d ep
Ġdecre ase
ut er
Ġsing er
Ġsh ops
Ġdest ination
ĠPol and
Ġexplicit ly
Ġt anks
Ġv oid
Ġearth qu
Ġmod est
Ġdist ribut
Ġaccur acy
b ul
Ġsole ly
Ġprov ider
Ġfing ers
Ġalgorith m
or ate
Ġmet ers
ĠEd it
Ġpat ent
Ġl ane
Ġprosecut or
Ġcheck ed
ER E
For mer
Ġfunction ality
Ġ6 6
Ġm m
Ġsc rew
Ġd imin
ĠK ings
Ġrank ing
Ġm art
Ġoper ator
Ġl os
for ward
b et
Ġinvestig ated
Ġsy nd
Ġpolit ician
c itation
Ġrest ore
ol as
Ġprov isions
ress ing
ĠSo ft
ĠN elson
Ġre ass
ri ke
be ing
Ġv oc
Ġvis its
Ġsub tle
id al
Ob ama
Ġbat ter
ĠComm and
amp a
ĠMore over
C or
Ġsu ck
ĠTh ink
ĠJ eremy
IL L
Ġpromot ed
ul se
Ġuncertain ty
ĠMar c
B ar
Ġb ol
ĠH oly
k ind
d ata
Ġbul k
Ġuncom fort
ĠMod el
Ġrel uct
ĠSt ewart
ĠE nt
Ġins ist
Ġinflu ential
Ġinvest ed
ĠU b
boy s
Ġst ats
bre aking
Th ree
Ġconcent ration
ĠM other
Ġch ocolate
Ġappl ies
Ġhand led
ĠSc he
v ation
Ġform ula
u ating
ag ine
Ġball s
Ġb ases
ism s
ĠTy pe
Ġprivile ge
Ġcompl ained
? âĢĻ
ĠPro duct
Ġimp ressed
Ġman ual
ass ion
ond uct
ĠUn like
Ġbel t
ke ley
olit an
Ġant ib
ĠD rug
n on
ĠUn ivers
ĠOlymp ics
---------------- ----------------
ĠQue ens
ĠD a
Ġoper ated
rif ice
Ġprosec ution
amb ling
off s
Ġdis abled
ĠPatri ots
Ġun re
Ġb ags
ĠL og
Ġf er
ĠD al
Ġsim ilarly
Ġthe ater
Ġad ap
ĠM ap
ĠC C
ar med
Ġover l
G ood
Ġin box
ĠB or
ĠAl aska
Ġke en
ĠN O
ĠEgypt ian
Ġsa ke
Ġinf ection
Ġanal ys
Ġthe ft
uck er
Ġn u
ĠTok yo
I d
ah oo
ĠNether lands
Ġst atic
Ġrec k
Ġb one
ĠSt ock
ĠSnow den
ĠJim my
ĠGr iff
ĠLouis iana
ĠMan ning
Ġcol leg
Ġcirc uit
ĠW y
Ġf its
Ġcrit eria
Ġlif estyle
Ġpain ting
Ġtraged y
or i
ĠMedic are
Ġabs urd
ur ches
b in
ou p
Ġel abor
ous es
unt u
c ott
Ġlay ers
s uch
20 11
Ġo ught
m illion
ĠN iger
ĠEx p
v ar
Ġkid n
as m
io x
Ġdest ro
Ġconsecut ive
ĠCorpor ation
Ġvol unt
D R
Ġtr ains
ĠBl ake
Ġin ex
Ġt ears
ust ing
E F
Ġf ed
r in
ĠKurd ish
eral d
ĠContin ue
tr ack
i ors
am ents
ĠE b
Ġlaunch ing
Ġliber ty
ri k
ĠH ad
Ġaccept ing
? )
ĠS N
Ġr iders
Ġhead lines
ĠK a
Ġinteract ions
ĠAb u
Ġen for
t own
b es
ay a
B en
Ġch ips
Ġdo ct
act or
spe ed
Ġt orn
ĠStan ford
Ġ6 3
Ġin hab
Ġconv iction
bit ious
Ġcompe lling
le ading
Ġcons ists
Ġro lled
ĠP ear
Ġfuck ing
ĠJ ane
Ġguid ance
ĠL ad
t arian
Ġsec ular
Ġm ouse
Ġj et
Ġg olf
viron ments
Ġlux ury
ĠTh ird
Ġexperiment al
w all
Ġcop s
Ġproject ed
ĠCh ampions
ĠBe ing
Ġrec ession
Ġposs ibilities
ĠS everal
ig e
Ġpost er
âĢ ³
Ġaccompan ied
Ġexam ined
il ation
Ġpo et
cent ury
Ġt ension
Ġoccas ions
Ġbab ies
ĠV in
Ġg arden
Ġb other
ĠM arg
ĠBl ood
in ite
Am ong
Ġparticip ating
Ġexc use
Ġpres erve
âĢĿ )
Ġdr um
Ġdet ention
ĠFin ancial
Ġd ressed
ist ance
Ġsignific ance
c ount
Ġrese mb
M M
ĠVictor ia
l aim
Ġbene ath
z one
Ġp ose
E ach
d og
ĠF O
Ġneighborhood s
Ġer u
Ġbeat en
iz ations
Ġreven ues
ĠT am
o vers
ĠOrgan ization
ĠN ature
Ġt ent
Ġg ym
Ġrenew able
Ġbo ards
Ġsee ks
Ġl ens
u ccess
Ġint rig
T O
ĠSwed ish
ĠTai wan
Ġsust ained
ĠCh ron
ite ment
B el
ĠGr ant
le ted
F urther
Ġout standing
Ġg ut
s ize
ĠCl oud
ĠR angers
Ġreal istic
Ġadv ent
ĠO il
r ons
Ġshel ter
Ġan ch
Ġ1 000
ĠK al
p ing
Follow ing
Ù Ħ
ĠQu est
T E
ĠG ard
g al
ĠA FP
Ġpain ful
Ġlong time
Ġa wards
Ġpo lling
ĠMar io
ĠM and
ĠE mer
Ġtrad ed
ĠHam as
Ġaccus ations
ĠN ich
Per haps
ĠPe ace
Y eah
ĠB ab
Ġaffect s
ug by
ĠNot hing
Ġthe oret
at al
Ġdocument ation
v o
Ġb ip
Ġpra ised
friend ly
ĠDe an
Ġemphas is
r c
ĠT R
Ġsupposed ly
Ġdocument ed
Ġsur ge
Ġconstruct ed
ĠEvery thing
Ġspot ted
Ġinnov ative
ĠWay ne
ĠAb d
ĠF ather
ĠL en
Ġmand ate
ĠC R
ĠS EC
Ġreflect s
ĠPlay Station
ĠH ans
ll or
Ġ `
o pp
AT ION
Ġth reshold
Ġphotograph s
ĠF le
Ġprevent ing
ĠN i
ĠStan ley
ĠN S
ĠFore st
Ġold est
Ġcross ed
Ġsto pping
Ġsp ray
Ġaw ful
ĠHamp shire
ĠCh rome
ect s
E m
Ġbet a
Ġatt orneys
Ġresident ial
l ied
th al
ĠOther s
Ġcomplex ity
Ġthe r
Ġass ists
inc ial
Ġit er
Ġb ump
ĠF OR
Ġautom atic
Ġres ort
Ġf ut
Ġw isdom
ĠPhilipp ines
Ġpass word
Ġgl obe
ĠD VD
ĠCub a
Ġw ore
c ular
Ġdes ert
w ords
ĠE D
qu es
Ġle ak
Ġp ension
ï¿½ ï¿½
Ġcross ing
un ity
Ġ6 7
ĠFl ash
al id
Ġch amber
Ġfil ing
M art
I O
ur i
Ġcle ared
Ġpregn ancy
il st
ard ed
Ġoccup ation
Ġb izarre
i per
ĠCl imate
Ġpol ar
Ġfavour ite
Ġr anging
om er
Ġconven ient
ot ion
ĠD isc
ĠF ig
Ġmiss iles
Ġadminist rative
be at
Ġthem es
ĠDe ep
ĠN ash
Ġimm une
ĠW inter
d f
Ġspeed s
ĠS port
Ġicon ic
Ġtri ps
Ġmortg age
Ġavail ability
ĠD rive
Ġcook ing
ĠL ocal
Ġfin ishing
Ġcur ve
Ġen vironments
ĠComm ons
Ġreview ed
ĠK night
Ġsent iment
Ġwal ks
n amed
Ġmurd ered
Ġpan els
ber y
ĠT able
Ch ina
Ġintellig ent
] :
Ġaddress ing
ne g
Ġhe s
for mer
Ġexpl oration
ĠP a
Ġback up
Ġl ady
Ġf ishing
Ġscrut iny
ĠIm m
Ġwire less
Ġappear ing
Ġinf ant
Ġlibr aries
Ġmyster ious
Ġdepart ments
ĠN a
ern el
Ġce ase
is ive
Ġreflect ed
" ,"
Ġover night
Ġcalcul ated
Ġpubl isher
sel ess
ĠC itiz
Ġexplo it
ĠRog er
ĠL arry
ir s
Ġamong st
Ġpred ec
Ġgraph ic
TH E
Ġcor n
el come
Ġact ed
k ward
f irst
Ġp our
M B
AS H
Ġdisc rimin
Ġnewslet ters
Ġt u
er r
On ly
Ġre ign
Ä ģ
go vernment
Ġd irty
Ġam bitious
Ġb icy
Ġal ign
Ġrob ots
cel ona
ar ians
Ġcelebr ated
Ġp ow
Ġconver ted
Ġadop tion
Ġwh is
Ġs ons
ari os
t wo
Ġh iding
Ġbe ef
ĠMississ ippi
ĠMal ays
Ġcreat or
Ġdelay ed
c ard
Ġunf ortunately
Ġindic ation
ĠFer gus
Ġdevast ating
Ġcollect ing
ĠRub io
ĠSing h
ĠRon ald
win ning
Ġdeal t
Ġmother s
Ġcontain er
j amin
or ia
ĠB enn
Ġrel ie
orm on
ail ing
sh ore
Ġarrest s
ĠHT ML
Ġhost ing
ĠBe at
st ra
S E
Ġcompet itors
Ġbur st
Ġsl ide
Ġparam eters
Ġres erve
g roup
ĠN ik
ĠAir port
Ġview ing
Ġr ivals
Ġnewsp apers
ĠP ir
Ġjuris d
Ġworld s
iat ric
b u
Ġuncomfort able
ĠV ar
Ġrel atives
Ġcontro ller
ĠR ow
~ ~
ĠP oll
Ġ6 1
m ap
d am
Ġt issue
u ably
ĠMc Donald
J o
EM ENT
ĠWh it
Ġ6 8
Ġexpl oring
Ġinstall ation
ĠMan ager
Ġab und
Ġrestrict ed
Ġpled ge
Ġoper ators
h ill
Ġor g
Ġca ution
Ġth ro
Ġreg ret
Ġm igration
ĠN ap
ĠM ind
Ġgr ants
ĠMag azine
Ġto ss
May be
Ġin du
ight ing
Ġcomment ary
em it
ĠF ederation
ĠQue bec
Ġ198 4
ĠT an
ĠNet anyahu
at ter
ĠS in
Ġ198 8
Ġlapt op
ĠI V
Ġm unicipal
u els
prof ile
Ġlight ing
Ġchemical s
Ġearn ings
Ġlimit ations
ond s
Ġpe er
Ġplan es
b urn
Ġw ound
Ġcount less
p in
Ġt ale
Ġre wards
Ġgrad ually
Ġan onym
ĠBl u
b ably
Ġmechanism s
ĠBl ock
Ġwin ners
ĠEag les
oy d
un a
Ġt ends
Ġsophistic ated
Ġsafe ly
ĠMedic ine
Ġoxy gen
ĠN az
Ġdec or
Ġear ning
ĠColl ins
Ġsleep ing
Ġdispl ays
Ġdemonst ration
ĠHe art
Ġd uties
Ġsepar ated
X X
Ġpro l
Ġbath room
Ġmean while
g ence
P s
Ġpr icing
Ġcomb ine
Ġemploy er
ĠSum mer
are r
ĠSte am
Ġgent le
Mich ael
Ġcru el
u j
Ġnot ably
put er
ĠO w
Ġtransl ation
Ġ198 6
Ġme ets
Ġbuild s
ĠTr ue
Ġproduct ivity
ĠMad rid
Ġquiet ly
Ġtou g
ĠMcC on
ĠS ection
D id
ĠL ions
Ġf ires
Ġcat ast
ĠR ap
Ġp ending
Ġcomp r
o op
anc hes
Ġamb assador
Ġor ange
Ġhor rible
Ġcour ses
ect ed
A tt
Ġsupp orter
ĠFurther more
Ġdet ained
Ġco in
m ons
Ġdeliver ing
ac ies
Ġrad ar
Ġbond s
Ġv iable
F e
ĠC ry
Ġsuggest ions
ĠKick starter
Ġr itual
Ġse eds
Ġw rap
Ġsk et
Ġdisapp eared
ĠP od
ĠP el
Ġprepar ation
Ġfor b
ĠE C
Ġreb el
Ġs izes
Ġhapp iness
Ġdes erves
u ates
pie ce
Ġcom ed
pl ing
Ġwitness ed
Che ck
Ġprevent ed
Ġnight s
Un fortunately
ru p
Ġper mitted
Ġver ify
Ġven ue
Ġann ually
op les
Wh ite
w id
. ),
Ġgold en
found er
ch arg
ĠN ative
ĠMur phy
ĠH uff
Ġtable t
Ġgra ve
Ġcomm ands
ĠS essions
ia h
Ġpros per
ĠS ex
form ance
Ġdesign ated
Ġequ ipped
Ġens uring
qu er
-- -
Ġagric ulture
P at
od a
wit zer
es ides
ĠRed s
Ġdiscipl ine
ur rency
ĠÂ ±
Ġact ress
ĠCoal ition
ĠF lynn
W orld
Ġc ave
Ġstart up
vers ion
Ġdrop s
ĠW ard
om ach
Ġremem bered
ĠVlad imir
ac cept
U D
ra it
ĠA y
Ġ3 60
ore r
or ical
ĠC rit
Ġquestion ing
Ġfire arms
Ġfasc inating
ĠFergus on
s ur
Ġobserv ations
ell er
Ġad j
DA Y
Ġcomm od
Ġmet aph
sh ot
Ġviol ated
Ad vertisements
ĠM uch
ĠHun ter
ch ron
Rep ublic
Ġpra ise
Ġpart ially
Ġpar ks
Ġrepl acing
Ġend less
n atural
Ġincor rect
Ġhighlight ed
Ġm isc
Ġimp ose
ĠHe at
M on
Ġtechn ological
ĠWik i
ur ities
f i
Ġpat rol
ĠMit chell
ut o
Ġsum mary
c at
Ġsty les
Ġc rown
g ary
ĠPh ys
med ia
Ġco ord
ĠT oy
les h
Ġcont ents
Ġinter ven
ĠRe id
Ġf urn
ren cies
Ġco ins
M edia
Ġmarg inal
ĠChristian ity
g i
Ġfac ulty
ĠD or
Ġprotect ions
Ġfrust ration
f s
Ġelect rical
ĠBer keley
Ġcon ced
Ġenter prise
re qu
ĠPro gress
Ġreact ions
ĠB ah
ug s
Ġdeb ates
W ar
p ot
Ġcount ies
fl ow
L O
ĠAr ts
Ġdr inks
/ .
Ġpoor ly
Ġc ats
ĠDak ota
Ġcompl ain
Ġc ous
o ard
Ġalt ogether
au cus
Ġas pir
ĠCommission er
Ġdeleg ates
ĠPost s
Ġpr ayer
Ġoff season
Ġder ived
ĠHot el
Ġt empt
Ġm ic
Ġh unt
W S
ĠL ady
ĠCor ps
Ġheart s
Ġfle w
â Ħ
ath on
Ġst ressed
Ġeth ics
B ig
ĠOr ange
ĠJac ob
ag u
o j
con nect
Ġl yr
b rew
Ġcult iv
iv an
Ġinst antly
L a
ĠCamp bell
ĠEx press
ĠF R
Ġadv ised
it ate
c ode
Ġdev oted
Ġal ike
IS T
ĠInd ians
Ġceleb ration
Ġn ode
Ġt um
em in
m other
Ġsuggest ion
m n
Ġover d
Ġsw ord
ĠIn n
Ġhonest ly
Ġcar rier
Ġaccompl ished
Ġdep os
Ġdam n
Ġsing ing
Ġ7 00
pro duct
ĠRes p
writ ten
Ġare na
Ġsl a
arent ly
N T
ĠL uke
Ġg reet
The ir
Ġsac rifice
ĠC L
Ġst unning
Ġp owered
Ġlog ical
D C
Ġsupp lement
Ġbu nd
Ġpre view
Ġhe aven
ĠCongress ional
Ġess ay
Ġadd iction
olog ically
ell ed
ĠAren a
Ġaw kward
ĠS ac
ers ion
Ġcap ability
lim inary
ĠSpe aker
Ġassum ption
appropri ate
Ġfr act
Ġcal endar
ĠM as
Ġtrans mission
Ġcrop s
ĠLaw rence
ock er
Ġbug s
Ġ> >
T witter
ll i
Ġmount ains
ĠSt orm
ĠG ene
le ments
Ġcirc les
ĠSm art
st ory
s k
at re
ĠU I
Ã £
ond a
Ġsup rem
Ġas h
ĠD omin
v ious
Ġg host
Ġadvoc acy
lect ed
Ġin eff
F S
f ile
Ġgro cer
Ġy ard
h ol
ĠAdd itionally
Ġdraft ed
Ġconfirm ation
and ed
Ġappoint ment
ĠMarsh all
arm a
ĠJ en
Ġtravel ed
ĠLa ure
Ġquant um
ĠEd itor
am an
Ġun l
Ġarg uably
Ġsevent h
ĠN ame
ĠK y
AT ED
Ġapp lying
ast ed
Ġorient ation
ĠB aker
Ġpain ted
Ġser ial
B re
Ġb io
at in
witzer land
ĠMod ern
ab ling
R O
ĠEnvironment al
ĠQ ual
ĠH us
act ory
S everal
Ġrespect ive
ĠR ound
ĠMel bourne
li ver
on ia
20 10
Ġhistor ically
M C
Ġmechan ics
Ġm akers
are tt
ĠP rom
Ġ7 6
ĠCh all
Ġd il
Ġre cept
Ġbound aries
ĠMor ris
Ġcitizens hip
Ġbub ble
Ġbit ter
ĠC a
Ġd ign
ip her
augh ters
ĠMot or
ĠAr ctic
Ġdem o
ĠG ab
Ġunderstand s
um ing
Ġwor ship
Ġwe aken
Ġscr atch
Ġclim b
ĠPark er
H ave
Ġpress ing
Ġm ild
Ġsh ake
Ġdirect ors
ec onom
Ġdiv ide
Ġsa uce
Ġrot ation
Ġst ir
ier re
ĠL aur
Ġep id
j an
Ġstrong est
ude au
Sec ond
mind ed
Ġd uration
im s
Ġhost ile
Ġaud iences
Ġfocus es
Ġto ll
hand ed
Ġha z
Ġsla very
Ġent ities
out ing
Ġcult ures
S et
Ġconvers ion
Ġvacc ine
Ġr ice
H ist
Ġst arter
Ġad vertisement
ĠF if
Ġlong est
Ġ198 5
ĠY ang
ĠS aint
val ue
E ng
Ġexpert ise
Ġsp y
Ġsh ocking
ĠLeg isl
E uro
Ġan arch
pro t
Ġshoot er
ĠNC AA
ĠBar celona
ĠHawai i
or ig
T ake
Ġrif le
Ġdr ones
ĠR ain
ere r
r idge
Le aks
z es
um m
Ġj okes
Ġacqu isition
s upp
ĠD est
? '
Ġilleg ally
Ġm amm
Ġpen alties
ĠF CC
d ev
Ġto ile
Ġmon etary
Ġbre ach
ĠIm p
d i
Ġoper ational
Ġv ague
M ed
h alf
Ġovers ight
ĠD raft
Ġ197 9
Ġint ensity
ĠH end
b ie
T IS
Ġhack ing
ĠF ind
ult s
Ġst omach
Ġst un
ac ular
Ġl one
form ed
Ġconclus ions
ĠS ong
ag raph
ĠFor ces
og g
is ode
âĦ ¢
Ġline back
Ġdist inction
Ġcrowd s
ĠRem ember
ĠAgain st
in itely
Ġreveal ing
Ġrespond ing
Ġto b
N G
F igure
Ġmotiv ation
st ore
ĠFant asy
oc us
ĠR T
Ġunnecess ary
d ec
com ed
ĠG re
ĠK as
Ġoper ates
Ġaccept ance
ĠS E
Ġinter rupt
Ġemer ge
Ġexperien cing
Ġch urches
A V
Ġagric ultural
Ġcomput ing
Ġbe ars
Ġtr ucks
Ġfrust rated
Ġconserv ation
n or
Ġbuy ers
Ġis lands
ut t
umb led
UT ERS
Ġqual ify
ac er
st an
g t
Ġt ar
Ġsh orter
ĠSaf ety
ĠWat son
ĠL ie
Ġrespond ents
Ġdes ired
Ġanim ated
Ġres idence
Ġpop ul
Ġp or
ĠBr andon
ĠH ann
Ġpartic les
Ġfr ank
Ġpl acing
ĠMc M
Ġcontribut ing
m are
======== ========
g ments
en cer
Ġexch anges
Ġfast est
ĠS ud
d eg
ĠOx ford
ere n
ĠBr us
o ons
Ġsc ary
ortun ate
Ġtut orial
Ġinvest ing
C urrent
ĠV ery
ock ets
ĠT odd
ĠF ro
M in
Ġu gly
Ġsec ured
Ġspace craft
Ġt une
Ġjud icial
Ġrespect ed
Ġscen arios
Ġce iling
Ġtou ched
Ġatt ributed
ĠBloom berg
Ġp ink
im ens
B est
âĢ ĭ
Ġimper ial
b les
ĠSm all
ĠAlbert a
spe cific
Ġrece ives
ĠF igure
Ġcomp osed
Ġenjoy ing
Ġachieve ment
Ġe ars
c rat
G iven
Ġmand atory
Ġconsequ ence
Ġpe ers
Ġp ione
Ġ198 7
k m
w estern
Ġiniti atives
oty pes
Ġsaf er
ĠE lection
Ġins ane
ĠTe a
uer to
Ġcondem ned
il ateral
Ġb ones
ĠR ice
ici ary
m id
Ġinc omp
ĠSw iss
Ġbal anced
D ata
0000 0000
Ġher itage
ĠS ide
Ġres igned
Ġra id
Ġt ill
ĠBar ry
at oes
Ġparticip ated
Ġdirect ions
Ġcontro lling
ĠM aine
Ġf illing
Ġl ake
Ġprint ing
it ivity
ĠC os
s ized
Ġ19 30
Ġmanufacture r
r int
ĠI RS
st ep
ry ption
Ġpan ic
ĠK u
st orm
Ġl ung
b ecause
Ġcoordin ator
Ġspread ing
and y
ĠD J
Ġto ken
Ġn aked
ĠT ampa
ĠI C
ĠB uck
f old
d ing
Ġtreat ing
ãģ ®
Ġdis par
Ġadvant ages
erv ing
Ġres erves
Ġ6 9
Ġfin an
m atic
Ġc am
Ġrec y
Ġn ull
ĠR oc
Ġp ays
ĠG a
Ġhuman itarian
Ġflex ible
t it
Ġtrans formation
ĠRec ords
ĠJ ess
Ġinstru ments
ĠR y
ĠCh ap
Ġpress ed
ĠK erry
ay ed
ĠAbb ott
Ġsubsid ies
ul pt
Ġgreen house
P I
Ġattend ance
ĠM itt
bor ne
i ary
Ġdesign ers
Ġg aining
ĠU C
ĠBe h
l ast
Ġappro ve
Ġanticip ated
G ame
Ġdist ant
Ġro cks
Ġprior ities
Ġtun nel
Ġform ally
ĠHis pan
ic ut
Ġprot otype
Ġide ological
AC K
idd ing
out heast
val id
Ġsent ences
Ġass ured
ĠN eed
ĠI ss
Ġt el
Ġqu otes
w hen
Ġdecl are
Ġelder ly
Ġc ake
Ġin hib
ict s
In ter
ĠK l
st ock
Ġex em
ĠH ide
B R
Ġt ensions
or ient
ĠLyn ch
ĠE arly
ĠM D
ĠBen jamin
r ust
Ġflex ibility
ĠEv ans
ch i
Ġinst inct
Ġl anes
ĠR ail
ĠP ok
ĠF ried
ĠLiber ty
Ġcomp osition
Ġab ol
ĠBl og
ĠB art
Ġcle ver
PD ATE
Ġworth y
m art
Ġsh ar
Ġped est
Ġfree ly
ud ge
inc inn
Ġharm ful
Ġfemin ist
Ġd ensity
Ġcon j
es is
ĠAnt i
Ġch ap
e u
Ġh ier
Ġcompl iance
ĠR aid
rop olitan
Ġmechan ical
Ġtr apped
Ġexp ed
Ġtob acco
Ġinn ings
Ġear liest
Ġport fol
le ton
âĪ µ
ĠT alk
M en
Ġacqu ire
Ġtechn ically
Ġ) ;
ro c
ĠP ur
Ã£ o
ĠT un
ĠA wards
F ree
ĠI an
Ġexcess ive
Ġs her
ĠS witzerland
th ink
Ġinc ons
ĠT reat
he alth
Ġkn ocked
ue z
Ġz ones
d rop
Ġdivor ce
Ġdisp os
Ġre aches
Ġnon profit
ĠAm b
Ġdetect ed
Ġexplos ive
ĠMcCon nell
Ġrus hed
Ġcr ude
Ġfr ight
Ġb ass
gl as
Ġpled ged
( '
on er
ĠWik ipedia
Ġwel comed
ĠF arm
b art
Ġcomple tion
Ġdifficult ies
Ġ vel
Ġm ixture
ĠPart ners
ĠD ate
Ġw rapped
Ġhat red
Ġvolunte er
ĠB uilding
oc ate
Ġteen ager
Ġat e
Ġre hab
i ated
ĠCommun ist
Ġp osed
Ġcondem n
Ġpri est
Ġvir al
incinn ati
Ġexc itement
Ġgr ateful
Ġdiscl osure
Ġa uction
Ġinter rog
Ġflu id
ĠR io
Ġsatisf ied
Ġaff air
Ġrum ors
ĠCent ury
Ġremind ed
Ġf are
ĠBr ady
m ain
au kee
Ġcrypt oc
ĠT erry
cont rolled
aw s
Ġunder min
Ġdistur bing
ĠG PU
Ġw ings
Ġref using
Ġconst rain
ĠTem ple
r ane
Ġhum or
ĠB ou
( );
Ġtrig gered
st art
ĠK yle
Ġminor ities
Ġam pl
Ġlegisl ature
ors es
abet es
Ġdo se
Ġha bits
Ġbrow s
ĠGr ay
Ġapp eals
ĠD E
Ġlegend ary
âĸĪ âĸĪ
H ar
ch arge
pr ising
P ar
f ox
N ever
Ġf est
ard ing
VER TIS
A ust
urn ed
Ġannoun cing
est one
Ġhigh way
N orth
Ġaltern atives
Ġ ì
lam m
ver ning
IC E
ĠF DA
Th rough
m aster
at ile
ĠCh o
is en
ell a
Ġtour ists
Ġs ends
T ION
Ġmut ual
Ġbu zz
Ġf t
it ably
Ġthere by
p op
Ġst ocks
Ġdec iding
ĠSte in
ĠCh ance
Ġ( )
Ġindic ating
Ġdeliber ately
by n
ll ers
ĠLe vel
Ġc ort
ĠF un
Ġimag ination
Ġl un
ra ham
bo ards
Ġsupp ose
ĠO scar
ĠM A
ĠJ e
Ġspark ed
Ġavo ided
Ġgr asp
ĠCamp aign
Ġassum ing
â Ķ
ĠN atural
ĠD om
P ress
Ġpresum ably
Ġcolle ague
Ġhope ful
Ġequ ity
Ġbl ess
au c
ig ers
ar ound
ĠM ov
ĠM oney
Ġtrust ed
Ġn ick
Ġshif ted
ation ally
ĠKir k
m i
V al
Wh ich
Ġprov incial
ĠT a
iv a
c s
Ġd iver
ĠArt icle
Ġfro zen
Ġtransp arent
ĠProf ile
o a
C NN
ne ver
L Y
Ġparliament ary
Ġedit ors
Ġfit ness
Ġtempor arily
ĠM obile
Ġdefend ers
Ġbreak fast
d ig
Ġres olved
Ġ7 8
Ġpen et
ous ing
arett es
Ġ7 7
w aukee
Ġr all
Ġprob ability
Ġg rip
Ġsu itable
Ġpurs uit
Ġabs ent
Ġdeploy ment
ĠP ed
ĠA w
ow ell
ĠE V
Ġident ifying
T om
ĠB eng
Ġconduct ing
Ġrep ly
Ġinf ring
Ġflo ating
l as
qu ality
af i
ĠBuff alo
Ġwa ited
ne red
Ġprev al
Ġoptim istic
r ank
d ale
G M
Ġsl ave
Ġplan ets
Ġbr ains
Ġdecl aration
Ġbar riers
Ġhack ers
ĠJeff erson
b ig
Ġrec ount
H aving
ĠTh under
ĠCam bridge
Ġemp ire
Ġsocial ist
Ġ198 3
Ġhar vest
Ġbel oved
az y
w he
Ġwh istle
Ġtend ency
Ġw ishes
ig hed
be it
Ġdam aging
ĠDou g
N ET
ĠIs lands
iff erent
Ġess ence
ĠC rown
Ġex empt
Ġclick ing
ĠCirc uit
Ġeconom ists
Ġeconom ies
O rig
Ġimm ense
Ġf ru
Ġliber als
b est
K ey
Ġsoc ieties
Ġedit ing
p ace
b age
G O
Ġoff set
Ġmag ical
S er
Ġpurs uing
ac ent
Ġlobb ying
Ġcart oon
) |
Ġsec rets
Ġdis g
ĠJ u
ĠA ve
Ġident ification
Ġadm its
ĠHoll and
ĠJ ets
s ky
Ġgrab bed
Ġstruct ural
ĠKe ith
Ġinfect ed
ĠNor way
Ġp ist
ĠArk ansas
ing ing
Ġtext s
Ġembed ded
ĠRog ers
Ġlif ted
or ph
keep er
Ġele ph
v als
Ġmet ab
Ġste ep
ist ani
Ġthrow s
Ġvar iation
Ġsurviv ors
Ġsc rap
t ics
Ġeth ical
ĠBrus sels
Ġres on
Ġhy brid
ol o
ĠWar riors
h ome
Ġunf ortunate
Ġbutt ons
Ġapproach ing
Ġconclud e
pl an
R T
Ġfail ures
Ġ198 2
ĠGl ass
H D
Ġt at
Ġa est
Ġregul ators
ĠP uerto
th an
ĠGu ide
Ġn ons
Ġal ph
Ġpurch ases
ĠCo hen
z o
Ġeconom ist
Ġver dict
ple x
Ġtreat y
Ġarm or
Ġcontact s
ĠE X
Ġl ib
per ial
Ġgrow s
ĠPr in
ĠF isher
her ic
ĠS ep
Ġdet ain
ĠRE UTERS
Ġt rop
Ġprocess or
ĠPhil ip
ĠConserv atives
Ġ7 4
Ġag ing
ĠPri ze
icial s
V ideo
Ġtradition ally
Ġve gan
own ers
Ġadv ances
Ġmeant ime
ĠUn iverse
AD VERTIS
se ud
writ er
ĠDep uty
Ġbreak down
ĠU ntil
Cl inton
Ð ¼
aren thood
Ġwh ites
Ġimm igrant
Ġunder mine
S ch
Ġlast ed
ĠE mb
Ġwid th
ĠM om
z b
Ġcolleg es
force ment
Ġwind s
ur se
te ch
ĠCh uck
in ance
ĠOcc up
Ġfar ms
Ġvill ages
Ġch ampions
Ġs illy
ĠBr and
Ġwarn ings
ot ton
Ġag greg
ust ers
Ġmill enn
ĠAl t
Ġun ity
ĠS aints
Ġpre ference
Ġrec onst
Ġobserv ation
ĠSc ar
Ġdraw s
g ian
Ġremind er
Ġcast ing
Ġdecre ased
ĠZ h
p owered
Ġrom antic
Ð ²
N EW
A nt
un ct
Ġfem ales
Ġlicens ed
s ign
Ġf ont
f ive
Ġbar rier
Ġdon ated
Ġdec ides
Ġcorrespond ing
ruct ive
Ġins urg
Ġhead line
Ġexp end
ĠN ixon
ĠFrank lin
S y
Ġfin ancing
ĠFor mer
f il
Ġwal let
Ġatt itudes
ab il
ĠC ass
w al
Ġsqu ee
Ġcomp ound
ur red
ĠAd vent
Ġcomp ly
Ġche er
ĠNe il
ĠMor ning
ank a
Ġbott les
Ġr ib
ĠCommun ications
Ġaw a
en c
Ġur ge
Ġtreat ments
Ġpassion ate
ĠThe atre
not e
ĠSus an
Ã© s
Ġac res
ĠTr udeau
ĠWW E
Ġ196 7
Ġafter math
back ed
IV E
Ġcount ing
Ġl ip
h ave
r ained
on i
is ers
ĠSci ences
Ġc odes
ĠW orks
Ġsusp icious
ĠB und
Ġ7 3
ĠE li
ĠC orn
Ġcollaps ed
Ġsens or
Ġcons iders
Ġ7 1
ĠR osen
S outh
Ġdestro ying
G od
ĠSh an
ĠConnect icut
Ġbenef icial
N Y
Ġintent ions
ĠD ub
Ġsucceed ed
Ġgo verning
ĠW iz
Ġund ers
Ġcont am
Ġvert ical
elt a
op es
L ink
Ġmag netic
Ġemot ion
Ġsequ el
Ġde ce
s chool
Ġt ong
Ġinter ference
Ġout er
d ays
Ġtr ash
ĠP interest
p ath
sec ond
ir able
Ġpure ly
Ġgener ous
Ġorganis ations
Ġstr ain
Ġfun eral
D B
Ref erences
ĠR oom
ĠFriend s
ool s
ĠK arl
ĠN ort
J an
Ġed ited
ĠN av
M al
Ġn an
St ud
Ġwond ered
Ġper mits
Ġaccount able
Ġexec ute
Ġretail ers
Ġfr action
p ublic
iz able
Ġstab il
Ġcoc aine
Ġvis a
Ġtr agic
Ġfl ip
Ġj ew
ĠMar ia
Ġ' '
enn a
ol ine
Ġgif ts
Ġinv ite
Ġt ang
uss ion
h aul
ut ical
x x
Ġret reat
vis or
Ġfeed ing
ĠK rist
ĠP ap
Ġtra its
Ġenc ount
t ail
Ġlab els
ĠRob in
ĠInt erest
ĠColumb us
Ġencount ered
ĠB ears
ĠAr thur
Ġsu ed
ĠLuc as
ri en
Ġhe nce
angel ical
Ġbr anches
ĠCow boys
Ġauthor ized
Ġd aughters
Ġarri ving
Ġ: :
ĠVenezuel a
c end
Ġcommission er
ĠCharl otte
ĠMad ison
it ial
dis play
M et
Ġ8 2
ad vant
Ġin sect
Ġple aded
Ġex ports
ĠR aven
Ġdoub led
Us ing
Ġle verage
Ġsac rific
Ġsm ugg
Ġd umb
Ġfe ared
l en
Ġdis pro
ĠBrad ley
wid th
Ġscreen ing
ĠF el
Ġwrest ling
n ormal
ĠC z
Ġmass es
Ġsuspic ion
Ġclean ing
Ġr iot
C ap
ĠB uy
S ign
ett a
Ġre un
Ġfound ing
arent s
I E
are st
Ġh ill
ĠC incinnati
co ins
Ġf ierce
ip h
W ork
ham mad
Ġtransform ed
Ġlack ing
.. ."
ĠMer kel
ue ller
Ġbelie ving
Ġgr ain
Ġsepar ation
ĠG arden
Ġ= =
D ec
ĠH ills
ĠÂ ©
Ġl au
th a
Ġpre liminary
Ġun rest
Ġlyr ics
ĠMil itary
ĠChrist ie
J ames
s ki
it bart
e or
l ive
F our
Ġcomp os
ĠTe xt
agh d
ĠHind u
Ġenh anced
Ġc ub
Ġind ict
Ġd ys
Ġbatter ies
. :
ard less
Ty pe
Ġste am
Ġf ence
Ġcreat ors
ĠB JP
ĠN ex
Ġl aser
ĠY ahoo
ĠWiki Leaks
Ġtransl ated
Ġjust ified
Ġinst itutional
ĠD og
ur able
roll er
ĠPlay ers
ĠM ission
Ġdis orders
ĠSt ars
ĠS M
ĠTh or
m outh
Ġwar fare
Ġincl usion
Ġcare ers
accept able
dri ven
ĠB os
Ġstatist ical
Ġdiagn osed
Ġathlet ic
ale y
Ġpil ots
Ġden ial
l ie
Ġincent ives
ear chers
Ġtermin al
ĠIslam ist
ĠWith in
Ġcomp aring
Ġcapital ist
i ots
Ġshif ts
Ġten ure
st age
Ġsc ulpt
U M
ĠSpe ed
ĠLe af
ed ed
crib ed
Ġpsych ology
f ly
Ġbankrupt cy
Ñ ı
Whe ther
O V
Ġhelicop ter
Ġb oring
ĠHar vey
Ġa ired
s ource
Ġbe ll
ĠA B
ĠN in
Ġth irty
claim ed
ĠT ob
ĠCount ry
ĠTy ler
Ġf ib
Ġmed ian
Ã ¥
Ġmagn itude
Ġur ging
ĠTurn er
ol k
Ġ{ \
Ġdam ages
Ġcred ibility
Ġunve iled
oc c
Ġte ens
Ġ198 1
Ġscream ing
d irect
Ġsl ower
Ġbe ers
Ġult ra
ĠWe iss
ĠStud ios
Ġelimin ated
Ġcomment ed
fe ld
Ġintrodu cing
Ġcertific ate
ĠH P
au x
ĠB Y
Ġp izza
Ġisol ation
ĠB ash
Ġun h
Ġdem ol
oca ust
Ġcomp assion
Â Ķ
g iving
as a
Ġan ime
ĠS ad
D E
Ġsoon er
Ġrecru iting
ĠSol ar
Ġind igenous
Ġnovel s
ĠC arson
Ġarrange ment
Ġtaxp ayer
Ġsp awn
Ġreal m
Ġgen et
ADVERTIS EMENT
ĠO liver
id ays
Ġgrav ity
Ġ ðŁ
pp y
Down load
Ġdisc our
Ġen ables
ace utical
t able
Ġtem plate
ĠB h
Ġmar ine
Ġdirect ory
Ġcontin uous
p ur
Ġgl ob
Ġd irt
Ġ0 1
A h
Ġv ibr
Ġboy friend
ord able
ch a
Ġjump ing
Ġspons ored
Ġhe aling
Â £
Ġpe oples
ĠMc L
G reen
ĠP ence
Ġshould ers
Ġhypot hesis
ĠDown load
Ġbreat hing
im age
Ġwork place
Ġtrad itions
ĠCl ar
u ced
Ġlicens ing
if ting
Ġorgan izing
rodu ction
as i
ĠE ss
ol er
Ġrh yth
Ġgr ace
Ġeval uate
ah a
Ġ Ø
Ġm asc
iox ide
lud e
u cc
per or
ĠMem orial
ĠD NC
it ative
Ġag rees
Ġ19 20
Ġroutine ly
Ġvulner ability
Ġind irect
Ġdon ation
ĠPok Ã©
âĪ Ĵ
ĠCor byn
ad ows
F ig
W A
g el
Ġincent ive
Ġcompar able
Ġcivil ization
ĠPol ish
Ġstre ak
H ill
ast ically
ĠPr inc
Ġwhe els
Ġtraff icking
ri ving
Ġconnect ing
Ġcomp iled
ĠM ason
Ġm ock
ĠPet ers
Ġaffect ing
A ug
in os
Ġun ch
ĠO d
te es
Ġdub bed
ĠR ams
ĠLeban on
Ġking dom
O ct
ke es
ĠG host
Ġlay out
Russ ian
Ġout right
Ġadequ ate
point s
ĠG onz
j ar
ĠC elt
ant o
Ġreg ards
w art
amp s
B L
Ġmar ry
Ġconv inc
Ġinst ruction
ĠG arc
ra pe
Ġfirm ly
Ġvac ation
Ġpath s
Ġin ch
1 20
ect or
Ã Ĺ
Ġc ents
Gener al
D ay
ĠC ut
ro se
Ġaver aged
Ġexcept ions
Ġprohib ited
Ġtrans f
at on
Ġcy cling
ate ur
Ġgener ating
Ġcry ing
ir k
Ġmidfield er
Ġeduc ated
res a
ĠR C
ĠW oman
U E
Ġlength y
ĠVer izon
B et
Ġproceed ings
Ġlike lihood
p y
Ġtem ple
Ġp ub
Ġfold er
Ġnegoti ate
Ġadapt ation
Ġint u
ĠVer mont
ugg ed
ĠU RL
ĠSen ior
ĠUb untu
ĠMil waukee
ĠRod rig
R ich
Ġpl aint
Ġo x
ĠJ oy
iss a
. âĢľ
t or
Ġres ume
Â ·
Ġpart ial
ĠCom ics
ull ivan
Ġfilm ing
ĠJ ake
Ġle agues
Ġentreprene urs
ĠStud io
l ib
Ġtw ist
Ġaccount ing
ĠA th
v iol
Ġmon sters
Ġprec ious
j e
Ġaccur ately
ĠPalest ine
ĠSpir it
ĠD anny
Ġh oney
ĠS ox
ĠF ab
ess ional
Ġment ally
ĠH unt
re nder
Ġendors ed
Ġwilling ness
Ġdetermin ation
Ġcount ed
Ñ ĭ
arth y
Ġ196 8
Russ ia
ĠL ane
Ġsolid arity
ĠM ust
ather ine
Ġto y
Ġmon op
Ġinvest or
ĠP AC
ĠK le
S uper
Ġpar agraph
Ġp upp
Ġwild life
ĠBelg ium
k g
Ġdisappoint ing
Ġconsum ed
Ġair line
ac ious
oot ing
op ard
Ġinv ented
Ġappeal ing
ĠG ates
Ġshe er
Ġtri ple
ias m
Ġearthqu ake
Ġaggress ion
OS T
ĠS alt
Ġse ctors
ill o
umb ling
Ġcelebr ity
oc ity
Ġref lection
Ġmatch ing
Ġf ict
A lex
ä ¸
re r
al in
Ġmotor cy
ell ar
St art
Ġalbum s
ke ys
Ġclin ic
Ġstat ue
Ġwork force
Ġtri umph
G erman
Ġshif ting
ul ative
Ġattack er
ĠH um
Ġwood en
Ġcounterpart s
Ġch ains
Ġsens ors
Ġh oly
H igh
Ġfol k
Ġsa il
Ġcontin ent
M ake
ck er
mar ks
iam ond
Ġaccomp any
Ġtr ace
Ġrus hing
it ated
Is lam
f our
Ġestablish ing
W est
ĠLt d
Ġsevere ly
Ġsuper hero
Ġdark ness
Ġwor n
ĠM M
ĠB ond
Ġsubsc ription
Ġb ust
Euro pe
Ġdesc ript
Ġd ivers
T or
Ġbet ray
i op
Ġmusic ians
Ġfar ming
al og
R ober
Ġreason ing
ĠJ a
Ġkill s
Ġbra ve
Ġgod s
ĠC her
Ġdis m
Ġindepend ently
Ġd ivid
pr ing
Ġz omb
Ġover look
ort ions
ack er
Ġthreat en
Ġsp are
200 9
ĠAn im
Ġsh aped
ubl in
pe ople
Ġgr ay
ĠD R
L D
AR D
ĠS or
J ack
Ġimp ress
Ġcr ashed
Ġw reck
Ġshe d
ĠGu y
Ġh ij
Ġmort ality
ig ma
ĠM ort
Ġpubl ishers
Ġhe d
Ġrenew ed
ĠH ub
ss on
ph p
B rit
ĠUn it
ĠQ aeda
ĠV A
Ġb urg
Ġclim bing
ĠAM D
ĠBook s
Ġsw ift
Ġn it
Ġconsult ant
Ġavoid ing
air y
Ġ8 8
Ġs ie
) (
Ġimplement ing
Ġexha ust
Ġgam ers
is ible
l ash
ĠL ock
cl osure
ĠBern ard
qu al
Ġesc aped
ĠArgent ina
Ġh orm
n ik
eng u
ĠBro s
Ġdec ks
ig nt
ĠSe ah
Ġobs erve
Ġcr icket
ocument ed
S ON
ĠM MA
ĠK och
Ġsmart phones
Ġ19 40
ĠSt re
Ġsk illed
Ġveget ables
ĠAn ne
Ġtr ap
ĠK am
Ġtouchdown s
ĠTrib une
Ġinteract ive
Ġtest ified
ĠP i
Ġroy al
ĠHigh way
h al
ĠP arenthood
iv ic
ak u
Ġrec alls
ĠMar co
Ġlaws uits
Ġins ists
Ġb ite
Ġspec ified
A v
Ġsu its
ĠRe ading
ian g
Ġun st
ĠPolit ical
ĠCal gary
ov ic
ĠW onder
act ic
Ġproblem atic
Ġbus es
ĠFin ance
at ers
Ġunder way
Ġrel ating
Ġd ated
S ometimes
olph ins
Ġme als
Ġassum ptions
ĠW ATCH
Ġsh ore
Ġless er
ĠPak istani
P N
red ict
ĠE S
Ġp ants
Ġam end
Ġfire f
Ġpurch asing
ĠEx change
Ġtim eline
bl ack
ĠDou glas
Ġap ology
Ġorig ins
Ch ris
ĠUnivers al
Ġoblig ation
Ġm aker
Ġform ing
Ġsupport ive
ĠJ oh
Ġblack s
Americ ans
Ġpow der
epend ence
Ġv on
mun ition
al ph
ĠIndones ia
pe red
h is
Ġpredict ions
ĠG PS
Ġpract ically
A c
Ġunc ons
Ġtra uma
Ġm erc
Ġadjust ed
ĠGall ery
oll ah
Ġexam ination
ĠBet ween
Ġout fit
T unes
row th
ĠE c
w er
Ġdi abetes
ĠWal ter
Ġpro x
Ġcl uster
ĠM ormon
ec hes
W rit
ap y
ol utions
Ġsn aps
Ġlaugh ing
out ube
orn s
Ġspecial ist
ĠSoft ware
se lling
Ġthorough ly
ĠL iving
ab ul
umb l
Ġd ioxide
op ing
Ġwhere ver
ĠBrazil ian
Ġportfol io
ĠA qu
ugg ing
lev ant
Ġsl aves
Ġdel ays
Ġsher iff
ĠSer ge
Ġtrans cript
Ġcompat ible
Ġp y
Ġres et
k ill
ah n
Ġafter wards
Ġed ges
ĠM C
IT Y
ĠGer mans
ĠCol omb
ĠE dd
Ġrank ings
ĠP ick
ur u
Ġes p
ah l
Ġliter ary
Ġle af
ĠK ind
Ġdiagn osis
Ġh alt
Ġswim ming
ĠAr men
ll o
Ġ1 30
ios ity
erv ation
Ġaud it
ĠBud get
uk i
S uch
US A
Ġin mates
Ġtrad em
Ġk ernel
Ġeval uation
an ium
Ġ18 0
Ġcreat ivity
ĠB E
Ġmem orial
Ġrep ublic
ĠHer o
ab el
E r
Ġresign ation
Ġnom inated
Ġf iber
Ġmet res
ĠL ess
Ġorgan ize
ul um
U PDATE
li ent
p se
et ing
Ġloc als
Ġfundra ising
Ġdeal ers
ĠSuper man
Ġsound ed
Ġs isters
ne ath
b ull
al so
ĠSystem s
Ġ197 6
ĠVill age
au er
Ġl ap
Ġcost ly
ĠMu hammad
u um
Ġstraight forward
M ike
C ity
S emit
Ġin appropriate
Ġcor ners
Ġun anim
Ġsl ip
Ġunf old
Ġlabor atory
Ġ197 2
cul es
Ġab used
ĠPal in
RE AD
Ġfriends hip
Ġpe pper
Ġelabor ate
Ġc her
fund ed
ill ery
ãģ Ħ
Ġl oving
ĠT ry
Ġch ase
Ġhe ter
Ġdis advant
le m
k ers
aff e
ĠS omething
Ġun e
ĠJohn ny
Ġn uts
Ġfundament ally
Ġphotograp her
Ġpre st
Ġf uels
Ġf ame
ĠGl enn
ĠAl f
Ġ Å
Ġmount ed
Ġdoct rine
Ġint end
Ġfor ums
ion ed
ĠIn v
d el
Ġobser vers
Ġ197 3
Ġloc ally
U I
Ph ot
Ġinf er
ĠS W
ĠBl ues
Ġcons olid
ĠH em
Ġle aks
Ġclass ical
ignt y
oub ted
Ġimag ined
Ġenc ryption
Ġinf amous
200 8
Ġteen age
Ġpred omin
ĠGold man
ĠR ou
Ġdet ection
Ġdis k
ĠBron cos
ili ation
add y
Ġpriv ately
Ġlim iting
RE S
#### ####
Ġt ub
u v
ie val
Mus lim
Ġple a
ĠM erc
Ġhung ry
Every one
Ġh orses
Ġexerc ises
Ġad mission
ĠA CL
ID S
Ġinter cept
un s
Ġve to
e ast
ail and
Ġb ikes
Ġh ood
ĠMove ment
Ġterrit ories
Ġ7 9
it is
Ġblood y
Ġd rought
ĠT D
Ġbes ides
Ġkill ings
ĠR ic
Ġshoot ings
Ġrap ed
re ach
i ology
ĠBenn ett
ĠIs a
ĠB uild
Ġs ink
ĠCo ach
pro v
Ġgar bage
ĠP as
Ġle ather
n ames
Ġoff shore
be an
Ġw and
âĶ Ģ
ĠZ ion
Ġautonom ous
Ġdem ographic
art isan
Ġb inding
ĠB ased
iss ance
Ġaccommod ate
he w
Ġr ated
ĠG ate
Ġ ^
{ \
Ġbehavi ors
oth y
Ġint ake
2 000
Ġgall ery
ch air
ĠSeah awks
ĠL isa
ĠJ ar
As ked
Ġ1 10
Ġne at
ĠPal ace
M I
Ġqual ities
W ind
D oes
ĠGM T
Ġcelebr ating
s is
Ġfl owers
Ġent ries
ĠEb ola
Ġspot light
ĠTe h
n esty
Ġarch ae
av i
ct ive
Ġbroad band
Ġstri ker
Ġcolon ial
ik ing
id ges
min ation
es ity
az ed
Ġst ays
ING TON
IN E
Ġcorpor ation
Ġchem istry
Ġexp ose
ĠH ockey
oc aly
oc ide
Ġo h
Ġlect ure
Ġdesper ately
Ġchart s
Ġbed room
Ġsac red
Ġeffect iveness
Ġswit ched
ĠT ory
ĠVik ings
Ġm ph
put ed
p ic
ĠWall ace
irt ual
Ġc ra
ĠC reek
Ġse iz
ĠBr un
Ġ8 4
Ġformer ly
ĠW R
ĠL ED
Ġb ind
S an
writ ing
Ġoccur ring
ĠPlan ned
Ġmat ched
ĠHom eland
ĠCub an
Ġhistor ian
Ġ197 5
Ġarr anged
r ament
ĠAg ree
let ter
W H
Ġwithdraw al
Ġex agger
ĠTer ror
Ġsubstant ially
Ġmed ication
Ġdiscl ose
ĠSun ni
ang o
Ġcon vey
we alth
Ġp ipe
Ð ´
ĠP ast
âĢ¦ âĢĿ
Ġfrust rating
Ġemb assy
sh irt
Ġd angers
ĠN PR
ĠUp date
ĠM ember
Ġlist ing
Ġstr ings
Ġmob il
ĠQ B
ins ula
Ġatt ributes
ur ring
Ġn odes
k h
Ġsp ill
Ġam munition
Ġinhab it
ĠCarl os
Ind eed
Ġaltern ate
B ER
id o
Look ing
Ġsol ved
Ġves sel
Ġenthus iasm
Ġinev itably
heim er
ĠRel ations
g ro
w ear
Ġgar age
Ġexhib ition
ĠF at
ĠBet ter
resp ons
A K
Ġpit cher
Ġlast ing
ĠSub scribe
Ġconsum e
Ġconf using
Ġw ounds
ential s
cc a
Ġsear ches
RE L
Ġanalys es
ĠSer ver
Ġexpress ing
Ġregul ate
ĠG B
Ġdiff er
ĠSh ar
ble m
Ġredu ces
IT H
A uthor
Ġe ighth
Ġme g
pe lled
he lp
ĠTrans portation
Ġfin als
Ġsh y
Ġdem on
ĠRe ed
uls ion
Ġfulf ill
t alk
Ġgr at
App le
ĠMichel le
ĠG it
Ġcre ep
Ġmod es
ĠC art
ming ham
ro lling
Ġpres cription
Ġout break
Ġdemonst rations
ft en
Ġout door
Ġsp ite
ĠV eter
Ġaccount ability
Ag ain
ig a
ir i
Ġwh ilst
se mble
ĠS oul
ĠN umber
ĠA my
ĠG ay
Ġr age
Ġbillion aire
Ġa ide
Ġaccident ally
Ġclos ure
Ġbelong s
ĠUr ban
ĠJo ined
Ġf oul
Ġal tered
osit ory
rem lin
f eed
Ġrel ies
ĠF ame
Ġtrib al
ĠTit le
Ġmid night
Ġmid st
ĠR AM
ĠPh one
ĠD od
Ġdelic ious
ĠElect ric
oubted ly
ĠM ueller
Ġphot ography
Ġdisc on
Art icle
h ole
Ġrev ised
C R
ĠRaid ers
Ġrespons ibilities
9 00
Ġor che
ĠStud y
ĠP T
B ay
ĠRet urn
Ġ8 1
p x
ĠA gr
Ġrein for
Ġpuzz le
Ġpublic ations
Ġfan cy
Ġmaintain s
on ge
L ife
Ġfil med
ri pp
ant i
ĠBill y
ĠH ud
Ġ Ï
Ġign oring
ĠSp encer
hold er
Ġath lete
Ġconsider ably
Ġd ive
Ġspect acular
Ġrender ing
Ġqu ad
Ġcance lled
ĠB obby
ĠEd ge
greg ation
Ġlineback er
O O
pp o
ĠHar rison
Ġplay back
Ġfin es
ĠM B
Ġstrict ly
Ġgener ic
ĠConf eder
Ġd ancing
Ġvol umes
Ġdef ic
ĠRec ord
Ġc m
ĠM i
Ġ8 3
Ġyour s
p it
Ġalgorith ms
ĠDen mark
Cl ass
Ġun le
pro of
Ġshut down
ĠPack ers
Ġvari ations
Ġclass room
R ob
Ġelect ro
Ġloyal ty
Ġdecl ining
ĠSp ider
ĠJam ie
Ġpart isan
Ġmeasure ments
Ġre ception
ĠT ill
ĠR oth
ĠB uzz
Ġrel ate
Ġp ile
ro ots
Ġlock er
ĠTr uth
ĠLiber als
E arly
ex p
Ġpro c
ĠS ent
ĠSil icon
Ġvig il
Ġr ings
Ġhero in
Ġgovern ance
ĠPhot ograph
z i
ĠL uck
Ġ197 8
C opyright
Ġmis leading
ĠSp urs
ĠBull s
ĠArab ic
1 10
Ġp orts
Ġdefin ing
M em
ĠY ears
Ġf lesh
S l
à ²
Pro f
Ġt ribute
Ġp seud
H ouse
Ġnew est
ic ers
Ġfresh man
S ur
rep resent
ĠG ear
oad ing
ol an
le tt
ist ically
ĠT ell
Ġspir its
Ġth umb
Ġoblig ations
ĠPokÃ© mon
iz ont
Ġto ys
ES S
p rom
ĠF ish
Ġrub ber
ĠD ublin
ron es
n ational
P H
Ġtw in
Ġris en
ĠBl air
ĠAr n
ul u
ag ging
ĠNew ton
ĠB B
Ġskept ical
Ġcar riers
Ġbrief ing
Ġreason ably
Ġsk ull
ĠCh ile
Ġastron aut
ĠCz ech
ĠAl tern
Ġm ate
Ġpre jud
ĠEd wards
Ġl oses
ĠR ank
Ġins ure
Ġad min
Ġw ip
Ġsh ipped
Ġman ages
Ġexcept ional
Ġmod ules
B it
az ines
ĠS ay
Ġmed al
G S
Ġc od
Ġab oard
Ġrest ored
ĠM IT
clus ion
ĠI l
olute ly
Ġsymbol s
ĠRepresent atives
ĠOb viously
ĠG reens
Ġexhib it
Ġperman ently
raw l
form ing
ĠJ uan
deg ree
Ġtoler ance
Ġpresident s
Ġi Tunes
ĠR ico
Â ®
Ġtun ed
run ner
om o
ĠD M
Ġstre ams
ĠN DP
Ġsh apes
Ġlabel ed
âĢĶâĢĶâĢĶâĢĶ âĢĶâĢĶâĢĶâĢĶ
ab ad
Ġgrocer y
Ġdemonst rates
ĠQ atar
ĠEm ploy
Ġtransl ate
Ġn ort
Ġname ly
Ġbo ats
ĠMet hod
ĠH BO
th s
Ġbattle field
Ġqu o
Ġd ash
man uel
Ġinc umb
work ing
Ġgen ius
ĠP un
out e
Ġsp ends
ĠBrook s
lement ary
Ġp sy
Ġin ability
ĠJenn ifer
ĠC BC
Ġhear ings
Ġover haul
C OM
ĠO wn
Ġfel ony
Ġun limited
ĠOr thodox
w rite
ĠP L
uster ity
L eg
Ġsche mes
E v
Ġ9 6
Ġmon ument
Ġout lined
Ġdr illing
ĠFor um
Ġsuccess or
ĠM aj
eg u
i pt
d isc
D ep
ĠP ere
Ġ8 6
Ġste pping
Ġment ions
IF A
Ġout let
Ġext ends
ĠBang l
sp ace
om atic
Ġlic enses
ĠTit an
Ġarrange ments
r ong
C are
Ġm ature
et e
V er
ĠPr int
S and
Ġden ying
âĢĿ âĢĶ
Ġa qu
Ġsign atures
Ġnegoti ating
Ġret ro
Ġgenuine ly
Ġc argo
Ġd ot
Ġpl ates
ap or
Ġemp ower
Ġautom ated
ic he
ĠS i
bs ite
Ġorganiz ers
Ġstro ke
ĠT ib
ĠN ag
ĠNex us
Ġde leted
ĠS el
ung le
th irds
Ġrecommend ation
Ġret rie
ĠBre itbart
00 1
Ġdisp ens
ĠR ah
m el
Ġspe eches
Ġbureau crat
ĠOper ation
ane ous
ĠB aghd
Ġ9 11
Ġstimul us
ĠRes ources
Ġ10 1
Ġc ute
Ġse ct
Ġju ice
Ġdign ity
Ġ ),
Ġarri ves
Ġinc oming
Ġteen agers
Ġfacilit ate
Ġ9 3
Ġun acceptable
Ġle ap
Ġl uc
Ġcoast al
Ġtrib e
ri el
ri ages
Ġfire arm
Ġl ined
ĠIn valid
ag ged
Ġ Ù
ĠChron icle
Ġsn ap
Ġlove ly
Ġ197 7
Ġc u
Ġwh ale
c ill
A ng
Ġp ound
Ġmus cles
Ġim pe
Ġprocess ed
h ner
ĠCh amber
Ġsell s
Ġun ited
W ashington
Ġ9 8
Ġtrave lling
rane an
Ġp ale
Ġco at
oo oo
Ġr am
pl ane
Ġprem iere
ou st
te am
ĠV iol
ĠBrown s
Ġembr aced
Ġc ache
Ä į
pl ess
Ġt ier
Ġp iv
B uy
AN T
Ġer r
E vent
Ġgl ory
Ġdiscl osed
os i
ĠM ack
ĠA ld
V R
u ity
Ġg rey
ĠF ast
Ġsovere ignty
Ġad verse
Ġen abling
Ġenc rypt
m and
ai ro
Ġsubject ed
Ġsexual ity
ĠH at
Ġm elt
ĠBe yond
Q aeda
head ed
ĠBry an
Ġsal aries
ĠSt op
Ġcor rid
Ġb inary
Ġanonym ity
Ġadap ted
ĠD ennis
à ¹
all ow
Ġves sels
ĠMalays ia
ĠTh ailand
Ġunder neath
ĠI b
Ġnecess ity
w ick
T ur
Ġ8 7
ab a
B E
Ġneur ons
Ġj ack
ĠN EW
Ġphys ician
Ġobject ives
Ġdon ate
us hing
t em
Ġsan ct
Ġchar ter
Ġelectron ics
ut ing
Ġsettle ments
Ġcl arity
Ġdoub ts
bor ough
acc ur
Ġsp at
Ġl iability
n ut
Ġdiv isions
Ġart ic
ĠShe l
g reen
Ġ9 2
uff icient
II I
ĠBry ant
M icro
Ġvend ors
Ġvict ories
Ġgu ilt
ed ge
Ġt ube
R et
O H
Ġmisc onduct
l ay
Ġantib iot
Ġcasual ties
Ġbe aring
ĠAcc ount
ai res
Ġfore sts
ĠDef ence
in ery
Ġpre season
Ġfunction ing
ash i
ĠRich mond
aug hed
Ġmist aken
Ġind ef
Ġcool ing
Ġint ens
ĠC u
Ġqu ery
ret ion
I X
ant ing
Ġfrank ly
re ated
Ġor al
Ġread ily
ĠB iden
ĠS elf
const itutional
Ġprop ri
ĠBrother s
Ġred e
Ġback lash
Ġad vers
Ġconfront ed
ĠC ape
Ġtour ism
Ġsteal ing
Ġn od
ĠSoc cer
Ġfl ows
? !
= âĢĿ
Ġdr ill
Ġconsist ency
ĠSe ven
ĠLe v
Ġeru pt
ĠGriff in
there um
Ġportray ed
Ġfort un
Ġref usal
Ġw are
Ġbip artisan
Ġal iens
ĠSim ilarly
ĠEvent ually
c ost
Ġsurve ys
ĠIsrael is
icult ure
ĠL ot
Ġred ist
ĠML B
ĠCast le
Ch ar
Ġlin ear
Ġachie ving
ĠS earch
Ġsynd rome
Ġaut ism
Ġevolution ary
Ġdetermin ing
Ġ196 9
Ġcontract ors
ĠSh ah
ch ar
Ġanaly zed
lick r
ĠAss istant
ĠM ode
Ġart work
Ġlegisl ators
Ġhydro gen
ĠIce land
ernand ez
Ġd ense
P oint
Ġqu arters
Ġexplo itation
ĠK el
Ġsub mar
est ab
Ġbusiness man
cl osed
Ġtax i
m ile
ĠG and
ĠSo on
port ion
Ġdesc end
ĠJ obs
Ġf ond
Ġca res
ĠSur vey
Ġconvinc ing
ĠNob ody
Ġl aughed
ĠL uther
ul k
ter ior
Ġprem ier
OR T
A FP
Ġpar ade
Ġmilit ant
in ate
Ġtong ue
Ġliber tarian
Ġ9 7
sc he
Ġhe m
ĠC row
ĠSp ot
Ġm igr
Ġmurd ers
Ġdis ability
Ġconfident ial
ĠM ans
Ġv ib
C r
Ġpret end
ĠG as
um ns
aret te
Ġa ides
ak y
Ġcomple ting
ĠZ ero
a ired
Ġmal ware
Ġroll s
Ġm all
ĠCom merce
ĠC ant
Ġcommit ting
ĠFr an
Ġpredec essor
Ġmarket place
Ġswe eping
Ġprev ention
ar u
Ġtack les
Ġtheoret ical
Ġl ighter
ĠTO DAY
ĠF itz
Ġo d
Ġinter section
ĠSh adow
ĠC OM
th ree
Ġs lic
Ġcred ited
ĠC ond
ocrat s
Ġtw elve
ĠMcC arthy
on el
ĠN E
ĠB us
ĠM VP
Ġpr ay
ĠBarb ara
Ġutter ly
Ġr ats
ar cer
am y
b ad
Ġu seless
Ġbarrel s
ling ton
Ġnew er
Ġne ural
ĠSh i
AS T
ĠSn ap
ul ator
ĠPhill ips
P ut
Ġal umin
ĠH ope
Ġmos que
Ġsubscrib ing
f ar
Ġg i
Ġhon our
fr ame
Ġp p
Ġbl own
ĠNever theless
Fr ank
Ġmob ility
light s
Ġarbit rary
ĠF ly
Ġswitch ing
Ġcy cles
Ġtr icks
b ank
ĠDr ag
Ġspons or
Ġsomet ime
ĠH alf
" ;
Ġlist ened
Ġcan cel
Ġbi ology
Ġsur pass
cont rol
Ġcharacter ized
Ġh ind
Ġflood ing
Ġinc on
Ġins ights
Ġtact ical
Ġlegit im
ĠWork ers
ASH INGTON
Ġcon cess
econom ic
Ġcloud s
Ġ0 2
Ġsubscrib ers
Ġext ending
ĠIm perial
Ġ197 1
Ġprotect ive
ĠHol ocaust
ĠIn side
Ġmag azines
ab bit
ĠWell s
M at
ĠYan kees
ĠA x
Ġtoile t
Ġvill ain
ĠTeh ran
ĠT igers
ĠI BM
ĠR ush
Ġpron ounced
ĠCh apter
K K
Ġart istic
ĠPlan et
ĠM ul
Ġlack s
Ġend e
orient ed
Ġglob ally
ĠC ab
ĠBir mingham
Ġ14 0
at hetic
Ġnav igation
Ġpos es
ĠTo o
] ;
Ġrefere n
ĠF L
es pecially
cast le
Ġcred ible
ĠCh arg
Ġfinan cially
ĠW ii
T im
Ġha ul
amp ed
k ens
Ġp etro
Ġhe al
Ġreb uild
ĠJ av
ent ions
Ġhun ger
Ġbreak through
h um
Ġtroub led
umbl r
Ġa ston
Ġnav igate
Ġf art
ĠPh D
Ġdynam ics
ĠProt est
ĠN ep
Ġassemb led
ier ra
Ġter rain
Ġbes ide
Ġsens itivity
ful ness
on ies
G reat
am o
ĠSt ra
Ġdomin ate
ĠSh ield
inf o
b ot
Ġcatch ing
ĠB L
Ġv owed
un ks
Ġsport ing
ĠLeg end
ĠD aw
ĠReg ional
atic an
Ġg ard
s im
ĠI v
or us
N ational
Ġbl end
t ic
out ed
ul in
ick ets
Ġl ately
ĠN ancy
IG HT
ĠL LC
ĠM all
ĠClass ic
Ġst raw
Ġexclud ed
Ġdefin itive
ĠW ade
Ġuns uccess
ĠR ud
t w
Ġnot orious
Ġjurisd iction
ĠR ace
M ac
ĠR achel
U P
Ġhard est
in is
ĠCl ose
Ġtable ts
Å į
an ne
res pect
D irect
Ġre iter
Ġpers istent
Ġnight mare
ĠSud an
c m
U K
Ġequ ation
ĠM ong
ĠP ad
ade qu
Ã¼ r
ĠT her
ĠCl ay
G R
Ġtour ist
Ġart if
ĠWh atever
ĠCard inals
A f
Ġhas h
Ġ197 4
l on
ĠGl obe
Ġviol ating
Ġpref erences
ĠMach ine
ĠL ang
Ġendorse ment
Ġst ark
IC K
Ġb atch
ĠSt ring
ob i
Ġac ute
M er
Ġdefend ants
om i
f in
b uilding
agon ist
Ġneutral ity
ul ates
Ġcous in
pt ic
ĠL ost
ĠEnter prise
uten ant
Ġtrick y
Ġexpress ions
Ġhold ers
Ġsatisf action
ĠS A
Ġmem or
Ġrent al
Ġdecl aring
ĠÐ ¿
ĠR at
Ġmass acre
Ġshort age
Ġexpect ation
ĠB R
Ġtheat ers
Ġlay ing
irl ines
\ \
Ġviol ate
Ġphilosoph ical
re amed
ĠHur ricane
ãĢ ģ
Ġinsp ire
ĠD iamond
ov ich
em ail
Ġfix es
ĠPant hers
Ñ Į
ĠV i
ĠAff ordable
ou g
Can ada
Ġwar r
Ġspons ors
Ġspec ify
ĠInd ex
EC T
Ġpers ist
Ġshe ets
Ġrevel ations
Ġreluct ant
Ġhel met
Ġd rown
Ġinc omes
Ġbul lets
ĠQu inn
ĠBe ast
Ġaffili ate
ser ver
ĠCol lect
Ġrel ent
ĠMar cus
in ces
Ġinf lamm
ĠOb ject
ĠNe ither
ĠLad en
G old
Ġp ockets
Ġhe ated
col or
ic ons
Ġre ct
ĠMat ter
os ures
Ġreview ing
Ġfavor able
ĠJul ian
ĠC ell
v ised
it utes
Ġc ab
d ie
ian ces
b b
ĠF ile
Ġfr ames
Ġback ers
Ġacc using
Ġinv isible
ĠLaur a
ur l
ĠNob el
ĠB ear
Ġve t
l ation
ĠS F
ĠFl ight
Ġse am
ĠPolit ics
ĠG rey
am bers
ĠD awn
rit ical
ĠBoe ing
h u
C ong
Ġrel ied
Ġassoci ations
terror ism
Ġapolog ize
Ġinflu ences
ĠB ed
s cience
ĠG A
ĠContin ued
ĠMem bers
ĠAut o
us ions
atern al
ĠA F
ott om
ĠRe form
S M
T er
Ġdeter ior
ĠAl ong
pro du
Ġg au
Ġsepar ately
Ġprov ing
ĠGarc ia
Ġfort une
Ġdim ensions
Ġover see
ĠUS D
Ġkick ing
Ġban ner
Ġdeb ris
Ġc ure
ĠPr im
ĠDou ble
Ġanaly ze
Ġreb ell
Ġident ities
Ġattack ers
O pen
Ġpass ive
Ġm ant
ic ating
C le
Ġw it
Ġur gent
Americ a
Ġrecre ational
ĠBre ak
Ġsk i
ĠF inn
Ġfact ories
Ġd read
ĠSe lect
ĠM itch
P ublic
Ġvar ied
Ġstr anger
Ġn urse
or ity
d esc
Ġcorrel ation
Ġ9 4
Ġsubst itute
Ġdistingu ish
ĠNash ville
ĠH ait
ĠSand y
Ġinter im
osp el
Ġal beit
Ġman eu
ĠB ird
Ġren ov
Ġpre y
ĠInvest ig
L aw
Ġsub mission
ok o
ĠSw ift
Ġval ued
lic ation
B ased
Ġmem orable
he nd
ĠK or
e very
at ched
Ġtourn aments
ĠBut ler
Ġpat ience
l arg
Ġl iv
Ġmet a
in formation
Ġp ars
ro gen
bl og
ĠF an
Ġintention ally
Ġun aware
ĠBase ball
Ġspe lls
ĠBrother hood
s qu
ĠSh aw
ĠK ill
Ġtrib es
ĠT ar
ĠN A
mont on
y d
rib ly
M o
Ġ3 50
in ho
ah an
V ID
> <
Ġre lying
Ġelev ated
Ġst er
ĠE le
Ġdist ribute
Ġrun ner
Ġsupp lied
Ġinf lic
ĠD ue
ĠE ither
Ġmart ial
U ntil
Ġne o
ĠP il
Ġdisc ourse
ĠB order
Ġmis under
Ġban ning
ĠK ath
ĠÂ °
Ġar ise
Ġgrand mother
Ġgrad uated
ĠL G
ĠN HS
so ever
ĠK remlin
app ro
Ġund oubtedly
Ġb out
ĠHall ow
ĠM ine
Ġimpl ies
am as
St ring
Ġvolunt ary
Ġsoc ially
ĠAL L
Ġattract ion
Ġaim ing
Ġrecip es
Ġfict ional
he astern
ĠU ser
ĠN at
Ġblog s
Ã º
ne x
roph ic
RE E
Ġwas h
ĠL an
ãĢ Ĥ
alth ough
Ġdiv ine
Ġglass es
Ġles bian
ĠT ru
Ġdu o
Ġevent ual
L ater
ĠK os
ĠAr c
aus ible
Ġw ard
Ġvary ing
Ġmeas uring
Ġprov es
Ġhand y
B ill
off icial
M arch
Ġprof itable
ĠM I
omet own
m os
Ġup side
G en
Ġe leg
ĠSur v
Ġsum mar
c ulation
________________ ________________
With out
' '
Ġtr ump
g s
Ġtre asure
Ġdefend ant
ĠR ing
Ġca ut
Ġpr ayers
Ġgrand father
the m
Ġwor ries
Ġp airs
Ġst icks
Ġdisc ont
H ub
cer pt
Ġentreprene ur
T ex
ain ted
Ġp ause
y ang
Ġstick ing
Ġnation ally
Ġrevel ation
Ġkilomet ers
ĠJ oint
ĠAust ria
ov o
Ġtext ure
ĠSam uel
ĠHol mes
ĠBaghd ad
J apan
Ġneighbour hood
Ġinterpre ted
ĠFour th
Ġsum mon
ĠB annon
ĠDe al
Ġcontract or
b one
!! !
Ġun lock
ĠP ubl
Ġ196 5
Ġrisk y
ĠTra vel
am ation
ĠK ate
sy stem
Con f
Ġreven ge
Ġinter medi
ĠC hen
b uild
ĠWork ing
ĠB P
ĠG ive
ĠV atican
ĠS O
ort ing
L ong
Ġj acket
ĠHug hes
Ġsh ower
Ġfam ously
S um
S H
um atic
el er
Ġk icks
ĠK az
Å ¡
Ġstar ring
em ale
ur as
Ġse min
Ġover time
ĠGirl s
ok u
Ġmac ro
j u
Ġapplic able
clus ive
ĠE rd
ĠAl b
ĠPet e
Ġ196 4
m us
Ġmin im
Ġremem bers
Ġmal icious
Ġload ing
ir med
ĠÂ ĵ
ĠP oly
âĢ¦ âĢ¦
ĠC SS
Ġconven ience
Ġanal og
Ġinc arcer
umb ai
Ġworry ing
orig inal
Ġcomple ment
Ġprov inces
Ġquant ity
Ġover ly
l ass
ĠChief s
Ġp add
c d
Ġfit ting
Ġunc overed
Ġachieve ments
Ġob esity
Ġthro at
ĠT arget
Ġf isher
ĠMo z
Se pt
Ġdisappoint ment
Ġpreced ent
Ġplug in
ĠS pect
ĠTra il
ĠA irlines
Ġinv alid
ĠMont ana
ĠL ore
he tt
Ġatt ribute
Ġl iver
ĠH orn
Ġse al
Ġiniti ated
rit ies
ange red
ĠDun can
per t
Ġbroad ly
Ġdiss ent
ĠH R
uc le
Ġprote ins
Ġgal axy
Ġdomin ance
s ocial
Ġj am
Ġover r
Ġc yn
ĠZ immer
Ġthe or
ac hers
Ġres ur
Ġp uck
Ġg aps
Ġ8 9
ĠW inn
D et
ĠE RA
Ġ9 1
br aska
ĠC op
ĠMoh ammed
Ġland l
ĠCom puter
Ġassault ed
Ġbr ick
Ġm aj
Ġcrowd ed
ĠBroad way
ur ious
Ġan throp
ĠW ol
Ġdef ines
augh s
Ġtact ic
ĠD ra
Ġwhat soever
Ġoption al
im ated
de velop
In f
Ġcommit ments
anc ies
Ġnav al
ast ing
Ġflaw s
ig m
Rem ember
as ures
OR K
Ġris es
Ġour s
Ġorgan ised
Ġshar ply
sp oken
col m
Ġimport s
Ġentertain ing
ĠAgree ment
Ġcur s
f ull
Ġyoung est
Ġover head
esc ope
ri ved
ĠFer r
ĠAle ppo
vel t
Ġan k
CL A
Ġtouch ing
Ġpitch ing
Ġa ster
l ocal
ĠCh and
ĠD ise
ĠD ays
ĠR PG
Ġfac ial
N E
J une
Ġswe pt
Ġf oster
ĠAn aly
In vest
Ġmed i
Ġn ost
T Y
ĠC our
ĠJ ong
Cal if
Ġacc idents
Ġdon or
ĠD A
ĠAl ice
y our
ĠK er
un ique
im port
ĠL em
bel iev
Ġpred iction
Ġassass ination
Ġrece ivers
ĠAl most
m ax
as ma
Ġforeign ers
ĠCol in
um bers
Ġmathemat ical
Ġper ce
Ġn arc
Ġcl ash
rament o
Ġnons ense
Ġcontribut or
U lt
ĠR aw
p ound
ĠS ullivan
ĠIndian apolis
Ġint act
Ġref und
ĠW ire
th ird
er ting
Ġhead er
Ġ q
J on
Ġhot els
Ġignor ance
Ġble w
P erson
Ġsub way
Ġsear ched
ĠM O
M D
Ġbicy cle
our ge
ĠFire fox
Ġinv itation
Ġcost ume
Ġen roll
and o
Ġteam mate
Ã¡ n
te lling
ine z
Sm ith
rav is
Ġoff enders
Ġauthent ic
ĠC ox
as se
ad ata
Ġsur render
s ay
Ġrecord ings
ĠAngel a
H ead
F ox
Ġparam eter
less ness
c all
Ġobst acles
ment ation
Ġsol ving
F ire
Ġle thal
ĠHispan ic
Ġtrans mit
ĠR acing
ĠA bs
uff y
Ġm ast
ro d
ibl ical
Ġsaf egu
Ġm ush
Ġbeh ave
Ġnetwork ing
op ular
Ġcorrespond ent
ed In
co very
se en
g reat
Ġepid emic
Ġbroad c
Ġout look
Ġvac uum
Ġo ven
tr ue
Ġfin ale
Ġconfront ation
ĠPict ures
ĠHer itage
Ġarch ive
ĠHallow een
.âĢĻ âĢĿ
Ġle ase
Un like
Ġse aled
Ġscript s
ĠCle an
] )
Ġsequ ences
z h
Ġw rist
ĠClar ke
ast rous
ch ief
Ġc ord
W ASHINGTON
Ġm im
Ġh ated
Ġextrem ist
Ġbrew ery
Ġvar iant
Ġpack s
Ġa usterity
cul us
Ġpresent ing
Ġopp ression
Ġev olve
Ġsubur ban
Ġquestion able
c lick
Ġs ab
REL ATED
L ear
In tern
ĠF ixed
ced es
ed uc
Over all
B rien
ĠG P
li ers
S ports
ĠB ishop
Ġregul ated
ĠC ris
ilit ary
Up dated
Ġdesign ing
Ġrend ered
do ing
Ġelimin ating
